{
  "version": "1.0",
  "truncation": null,
  "padding": null,
  "added_tokens": [
    {
      "id": 0,
      "content": "<|endoftext|>",
      "single_word": false,
      "lstrip": false,
      "rstrip": false,
      "normalized": false,
      "special": true
    }
  ],
  "normalizer": null,
  "pre_tokenizer": {
    "type": "ByteLevel",
    "add_prefix_space": false,
    "trim_offsets": true,
    "use_regex": true
  },
  "post_processor": null,
  "decoder": {
    "type": "ByteLevel",
    "add_prefix_space": true,
    "trim_offsets": true,
    "use_regex": true
  },
  "model": {
    "type": "BPE",
    "dropout": null,
    "unk_token": null,
    "continuing_subword_prefix": null,
    "end_of_word_suffix": null,
    "fuse_unk": false,
    "byte_fallback": false,
    "ignore_merges": false,
    "vocab": {
      "<|endoftext|>": 0,
      "!": 1,
      "\"": 2,
      "#": 3,
      "$": 4,
      "%": 5,
      "&": 6,
      "'": 7,
      "(": 8,
      ")": 9,
      "*": 10,
      "+": 11,
      ",": 12,
      "-": 13,
      ".": 14,
      "/": 15,
      "0": 16,
      "1": 17,
      "2": 18,
      "3": 19,
      "4": 20,
      "5": 21,
      "6": 22,
      "7": 23,
      "8": 24,
      "9": 25,
      ":": 26,
      ";": 27,
      "<": 28,
      "=": 29,
      ">": 30,
      "?": 31,
      "@": 32,
      "A": 33,
      "B": 34,
      "C": 35,
      "D": 36,
      "E": 37,
      "F": 38,
      "G": 39,
      "H": 40,
      "I": 41,
      "J": 42,
      "K": 43,
      "L": 44,
      "M": 45,
      "N": 46,
      "O": 47,
      "P": 48,
      "Q": 49,
      "R": 50,
      "S": 51,
      "T": 52,
      "U": 53,
      "V": 54,
      "W": 55,
      "X": 56,
      "Y": 57,
      "Z": 58,
      "[": 59,
      "\\": 60,
      "]": 61,
      "^": 62,
      "_": 63,
      "`": 64,
      "a": 65,
      "b": 66,
      "c": 67,
      "d": 68,
      "e": 69,
      "f": 70,
      "g": 71,
      "h": 72,
      "i": 73,
      "j": 74,
      "k": 75,
      "l": 76,
      "m": 77,
      "n": 78,
      "o": 79,
      "p": 80,
      "q": 81,
      "r": 82,
      "s": 83,
      "t": 84,
      "u": 85,
      "v": 86,
      "w": 87,
      "x": 88,
      "y": 89,
      "z": 90,
      "{": 91,
      "|": 92,
      "}": 93,
      "~": 94,
      "¡": 95,
      "¢": 96,
      "£": 97,
      "¤": 98,
      "¥": 99,
      "¦": 100,
      "§": 101,
      "¨": 102,
      "©": 103,
      "ª": 104,
      "«": 105,
      "¬": 106,
      "®": 107,
      "¯": 108,
      "°": 109,
      "±": 110,
      "²": 111,
      "³": 112,
      "´": 113,
      "µ": 114,
      "¶": 115,
      "·": 116,
      "¸": 117,
      "¹": 118,
      "º": 119,
      "»": 120,
      "¼": 121,
      "½": 122,
      "¾": 123,
      "¿": 124,
      "À": 125,
      "Á": 126,
      "Â": 127,
      "Ã": 128,
      "Ä": 129,
      "Å": 130,
      "Æ": 131,
      "Ç": 132,
      "È": 133,
      "É": 134,
      "Ê": 135,
      "Ë": 136,
      "Ì": 137,
      "Í": 138,
      "Î": 139,
      "Ï": 140,
      "Ð": 141,
      "Ñ": 142,
      "Ò": 143,
      "Ó": 144,
      "Ô": 145,
      "Õ": 146,
      "Ö": 147,
      "×": 148,
      "Ø": 149,
      "Ù": 150,
      "Ú": 151,
      "Û": 152,
      "Ü": 153,
      "Ý": 154,
      "Þ": 155,
      "ß": 156,
      "à": 157,
      "á": 158,
      "â": 159,
      "ã": 160,
      "ä": 161,
      "å": 162,
      "æ": 163,
      "ç": 164,
      "è": 165,
      "é": 166,
      "ê": 167,
      "ë": 168,
      "ì": 169,
      "í": 170,
      "î": 171,
      "ï": 172,
      "ð": 173,
      "ñ": 174,
      "ò": 175,
      "ó": 176,
      "ô": 177,
      "õ": 178,
      "ö": 179,
      "÷": 180,
      "ø": 181,
      "ù": 182,
      "ú": 183,
      "û": 184,
      "ü": 185,
      "ý": 186,
      "þ": 187,
      "ÿ": 188,
      "Ā": 189,
      "ā": 190,
      "Ă": 191,
      "ă": 192,
      "Ą": 193,
      "ą": 194,
      "Ć": 195,
      "ć": 196,
      "Ĉ": 197,
      "ĉ": 198,
      "Ċ": 199,
      "ċ": 200,
      "Č": 201,
      "č": 202,
      "Ď": 203,
      "ď": 204,
      "Đ": 205,
      "đ": 206,
      "Ē": 207,
      "ē": 208,
      "Ĕ": 209,
      "ĕ": 210,
      "Ė": 211,
      "ė": 212,
      "Ę": 213,
      "ę": 214,
      "Ě": 215,
      "ě": 216,
      "Ĝ": 217,
      "ĝ": 218,
      "Ğ": 219,
      "ğ": 220,
      "Ġ": 221,
      "ġ": 222,
      "Ģ": 223,
      "ģ": 224,
      "Ĥ": 225,
      "ĥ": 226,
      "Ħ": 227,
      "ħ": 228,
      "Ĩ": 229,
      "ĩ": 230,
      "Ī": 231,
      "ī": 232,
      "Ĭ": 233,
      "ĭ": 234,
      "Į": 235,
      "į": 236,
      "İ": 237,
      "ı": 238,
      "Ĳ": 239,
      "ĳ": 240,
      "Ĵ": 241,
      "ĵ": 242,
      "Ķ": 243,
      "ķ": 244,
      "ĸ": 245,
      "Ĺ": 246,
      "ĺ": 247,
      "Ļ": 248,
      "ļ": 249,
      "Ľ": 250,
      "ľ": 251,
      "Ŀ": 252,
      "ŀ": 253,
      "Ł": 254,
      "ł": 255,
      "Ń": 256,
      "Ġt": 257,
      "Ġa": 258,
      "he": 259,
      "in": 260,
      "re": 261,
      "Ġthe": 262,
      "Ġo": 263,
      "er": 264,
      "on": 265,
      "at": 266,
      "Ġs": 267,
      "en": 268,
      "Ġc": 269,
      "Ġw": 270,
      "es": 271,
      "is": 272,
      "nd": 273,
      "or": 274,
      "it": 275,
      "Ġp": 276,
      "ed": 277,
      "al": 278,
      "Ġof": 279,
      "Ġb": 280,
      "Ġf": 281,
      "an": 282,
      "Ġin": 283,
      "ar": 284,
      "ing": 285,
      "Ġm": 286,
      "ou": 287,
      "ic": 288,
      "Ġand": 289,
      "Ġto": 290,
      "ion": 291,
      "Ġd": 292,
      "ro": 293,
      "le": 294,
      "as": 295,
      "Ġh": 296,
      "ent": 297,
      "Ġth": 298,
      "ct": 299,
      "il": 300,
      "Ġe": 301,
      "Ġre": 302,
      "om": 303,
      "Ġl": 304,
      "st": 305,
      "Ġn": 306,
      "ve": 307,
      "ly": 308,
      "Ġbe": 309,
      "ĠT": 310,
      "Ġis": 311,
      "ol": 312,
      "se": 313,
      "ation": 314,
      "id": 315,
      "Ġg": 316,
      "im": 317,
      "ce": 318,
      "ĠA": 319,
      "et": 320,
      "ut": 321,
      "ot": 322,
      "ur": 323,
      "ra": 324,
      "ch": 325,
      "ĠS": 326,
      "Ġfor": 327,
      "ow": 328,
      "ig": 329,
      "ĠC": 330,
      "âĢ": 331,
      "Ġon": 332,
      "Ġthat": 333,
      "Ġu": 334,
      "ver": 335,
      "ĠI": 336,
      "ir": 337,
      "Ġst": 338,
      "am": 339,
      "ul": 340,
      "ay": 341,
      "ad": 342,
      "Ġas": 343,
      "el": 344,
      "ith": 345,
      "her": 346,
      "Ġpro": 347,
      "Ġcon": 348,
      "ĠM": 349,
      "Ġy": 350,
      "Ġan": 351,
      "Ġ1": 352,
      "Ġ(": 353,
      "Ġwith": 354,
      "Ġwh": 355,
      "Ġor": 356,
      "Ġare": 357,
      "ter": 358,
      "if": 359,
      "Ġit": 360,
      "ĠP": 361,
      "ĠThe": 362,
      "Ġal": 363,
      "ment": 364,
      "od": 365,
      "ist": 366,
      "th": 367,
      "op": 368,
      "ers": 369,
      "ge": 370,
      "ate": 371,
      "Ġde": 372,
      "ĠB": 373,
      "ies": 374,
      "us": 375,
      "ill": 376,
      "ere": 377,
      "um": 378,
      "ab": 379,
      "ĠH": 380,
      "Ġex": 381,
      "res": 382,
      "Ġcom": 383,
      "ect": 384,
      "Ġby": 385,
      "Ġhe": 386,
      "ity": 387,
      "est": 388,
      "ess": 389,
      "rom": 390,
      "os": 391,
      "ore": 392,
      "Ġyou": 393,
      "ri": 394,
      "em": 395,
      "ld": 396,
      "Ġsu": 397,
      "Ġha": 398,
      "Ġat": 399,
      "ac": 400,
      "Ġwas": 401,
      "ive": 402,
      "ĠW": 403,
      "nt": 404,
      "Ġv": 405,
      "ĠD": 406,
      "qu": 407,
      "pp": 408,
      "ain": 409,
      "ĠE": 410,
      "ĠR": 411,
      "ant": 412,
      "Ġfrom": 413,
      "ud": 414,
      "igh": 415,
      "ke": 416,
      "and": 417,
      "ĠF": 418,
      "Ġ2": 419,
      "oc": 420,
      "iv": 421,
      "ĠN": 422,
      "Ġse": 423,
      "Ġne": 424,
      "ort": 425,
      "Ġch": 426,
      "Ġr": 427,
      "ĠG": 428,
      "un": 429,
      "ure": 430,
      "Ġnot": 431,
      "00": 432,
      "art": 433,
      "ical": 434,
      "ĠL": 435,
      "ial": 436,
      "Ġcan": 437,
      "og": 438,
      "Ġhave": 439,
      "Ġle": 440,
      "Ġsp": 441,
      "Ġsh": 442,
      "Ġen": 443,
      "ich": 444,
      "all": 445,
      "ight": 446,
      "pt": 447,
      "The": 448,
      "âĢĻ": 449,
      "Ġthis": 450,
      "rou": 451,
      "ould": 452,
      "'s": 453,
      "ther": 454,
      "Ġab": 455,
      "gh": 456,
      "ost": 457,
      "ions": 458,
      "our": 459,
      "Ġwor": 460,
      "ated": 461,
      "ust": 462,
      "ard": 463,
      "ĠJ": 464,
      "ome": 465,
      "ear": 466,
      "ine": 467,
      "ia": 468,
      "ĠO": 469,
      "ell": 470,
      "out": 471,
      "per": 472,
      "ĠâĢ": 473,
      "ans": 474,
      "ast": 475,
      "Ġwe": 476,
      "Ġus": 477,
      "ĠU": 478,
      "Ġtheir": 479,
      "Ġint": 480,
      "ff": 481,
      "act": 482,
      "ec": 483,
      "Ġim": 484,
      "Ġwhich": 485,
      "Ġpl": 486,
      "du": 487,
      "pl": 488,
      "ĠIn": 489,
      "ew": 490,
      "Ġ\"": 491,
      "ide": 492,
      "Ġk": 493,
      "ous": 494,
      "ag": 495,
      "are": 496,
      "Ġcont": 497,
      "age": 498,
      "iz": 499,
      "ak": 500,
      "Ġwhe": 501,
      "Ġall": 502,
      "ib": 503,
      "Ġdis": 504,
      "cc": 505,
      "end": 506,
      "Ġthey": 507,
      "Ġad": 508,
      "Ġ19": 509,
      "ong": 510,
      "ap": 511,
      "ary": 512,
      "ru": 513,
      "ater": 514,
      "orm": 515,
      "ations": 516,
      "Ġwere": 517,
      "vel": 518,
      "Ġhas": 519,
      "Ġmore": 520,
      "Ġinc": 521,
      "Ġcomp": 522,
      "ult": 523,
      "ood": 524,
      "ip": 525,
      "Ġres": 526,
      "Ġwill": 527,
      "Ġother": 528,
      "Ġbut": 529,
      "ire": 530,
      "Ġdo": 531,
      "Ġper": 532,
      "ence": 533,
      "Ġcl": 534,
      "ual": 535,
      "so": 536,
      "ry": 537,
      "ĠTh": 538,
      "ep": 539,
      "Ġman": 540,
      "Ġone": 541,
      "ild": 542,
      "ks": 543,
      "able": 544,
      "ose": 545,
      "ance": 546,
      "Ġar": 547,
      "ind": 548,
      "ign": 549,
      "Ġj": 550,
      "âĢĿ": 551,
      "Ġme": 552,
      "ass": 553,
      "ace": 554,
      "Ġhis": 555,
      "ress": 556,
      "ord": 557,
      "ction": 558,
      "ame": 559,
      "ach": 560,
      "ents": 561,
      "reat": 562,
      "ase": 563,
      "ber": 564,
      "Ġun": 565,
      "ice": 566,
      "Ġpart": 567,
      ").": 568,
      "av": 569,
      "ĠSt": 570,
      "ory": 571,
      "Ġapp": 572,
      "ount": 573,
      "Ġalso": 574,
      "Ġwho": 575,
      "au": 576,
      "ish": 577,
      "Ġev": 578,
      "Ġte": 579,
      "Ġyour": 580,
      "olog": 581,
      "ake": 582,
      "Ġimp": 583,
      "ub": 584,
      "ition": 585,
      "Ġout": 586,
      "Ġso": 587,
      "Ġpre": 588,
      "Ġcomm": 589,
      "ĠK": 590,
      "ack": 591,
      "ime": 592,
      "ens": 593,
      "Ġinf": 594,
      "Ġabout": 595,
      "ci": 596,
      "ok": 597,
      "very": 598,
      "one": 599,
      "ite": 600,
      "ors": 601,
      "ian": 602,
      "ound": 603,
      "ree": 604,
      "Ġstud": 605,
      "ĠâĢľ": 606,
      "mer": 607,
      "Ġsy": 608,
      "Ġmay": 609,
      "ces": 610,
      "Ġyear": 611,
      "Ġthan": 612,
      "Ġup": 613,
      "ĠCh": 614,
      "Ġpe": 615,
      "Ġbeen": 616,
      "ue": 617,
      "ates": 618,
      "ile": 619,
      "Ġits": 620,
      "ang": 621,
      "ric": 622,
      "Ġrec": 623,
      "ĠV": 624,
      "Ġthem": 625,
      "own": 626,
      "Ġhad": 627,
      "Ġsome": 628,
      "ie": 629,
      "Ġbec": 630,
      "low": 631,
      "Ġag": 632,
      "ail": 633,
      "Ġgo": 634,
      "vers": 635,
      "ays": 636,
      "Ġqu": 637,
      "Ġthere": 638,
      "ĠIt": 639,
      "nder": 640,
      "ph": 641,
      "ons": 642,
      "ike": 643,
      "ough": 644,
      "Ġinto": 645,
      "rit": 646,
      "erv": 647,
      "tern": 648,
      "Ġtra": 649,
      "ond": 650,
      "Ġ3": 651,
      "ople": 652,
      "Ġtw": 653,
      "Ġkn": 654,
      "te": 655,
      "iff": 656,
      "ms": 657,
      "rough": 658,
      "Ġ200": 659,
      "Ġra": 660,
      "lic": 661,
      "Ġsa": 662,
      "ings": 663,
      "Ġwhen": 664,
      "ject": 665,
      "Ġwould": 666,
      "ove": 667,
      "ally": 668,
      "ren": 669,
      "irst": 670,
      "Ġthese": 671,
      "lud": 672,
      "ob": 673,
      "lect": 674,
      "int": 675,
      "Ġrep": 676,
      "Ġover": 677,
      "Ġnew": 678,
      "Ġcons": 679,
      "Ġind": 680,
      "Ġcol": 681,
      "Ġgen": 682,
      "Ġwork": 683,
      "ational": 684,
      "Ġtime": 685,
      "Ġ-": 686,
      "Ġact": 687,
      "Ġdes": 688,
      "Ġbl": 689,
      "ific": 690,
      "hed": 691,
      "Ġro": 692,
      "ll": 693,
      "Ġmost": 694,
      "Ġunder": 695,
      "wn": 696,
      "ments": 697,
      "ĠThis": 698,
      "stem": 699,
      "ys": 700,
      "red": 701,
      "Ġuse": 702,
      "ities": 703,
      "Ġpeople": 704,
      "velop": 705,
      "ause": 706,
      "Ġbet": 707,
      "we": 708,
      "),": 709,
      "Ġrel": 710,
      "ĠUn": 711,
      "Ġsuch": 712,
      "Ġacc": 713,
      "ook": 714,
      "Ġ20": 715,
      "ĠY": 716,
      "Ġdiff": 717,
      "Ġhow": 718,
      "iss": 719,
      "Ġno": 720,
      "Ġany": 721,
      "Ġif": 722,
      "ative": 723,
      "Ġprov": 724,
      "Ġtr": 725,
      "Ġfirst": 726,
      "ning": 727,
      "les": 728,
      "Ġinclud": 729,
      "ple": 730,
      "ced": 731,
      "erm": 732,
      "Ġonly": 733,
      "ov": 734,
      "Ġspec": 735,
      "Ġoff": 736,
      "Ġtwo": 737,
      "ffect": 738,
      "ular": 739,
      "Ġph": 740,
      "ious": 741,
      "Ġlike": 742,
      "Ġam": 743,
      "Ġpo": 744,
      "ied": 745,
      "rib": 746,
      "Ġchild": 747,
      "Ġused": 748,
      "Ġour": 749,
      "Ġreg": 750,
      "alth": 751,
      "fter": 752,
      "oss": 753,
      "Ġprodu": 754,
      "ts": 755,
      "Ġsur": 756,
      "Ġexp": 757,
      "ĠHe": 758,
      "Ġdevelop": 759,
      "Ġthrough": 760,
      "Ġmany": 761,
      "Ġob": 762,
      "Ġneed": 763,
      "uc": 764,
      "Ġem": 765,
      "cess": 766,
      "ool": 767,
      "Ġatt": 768,
      "uring": 769,
      "Ġsystem": 770,
      "ating": 771,
      "ower": 772,
      "Ġac": 773,
      "ics": 774,
      "ath": 775,
      "Ġwhat": 776,
      "als": 777,
      "hen": 778,
      "Ġsc": 779,
      "round": 780,
      "yp": 781,
      "arch": 782,
      "ise": 783,
      "iet": 784,
      "rop": 785,
      "ne": 786,
      "ert": 787,
      "Ġyears": 788,
      "aw": 789,
      "oth": 790,
      "ink": 791,
      "Ġdec": 792,
      "ark": 793,
      "Ġwater": 794,
      "Ġ4": 795,
      "old": 796,
      "Ġass": 797,
      "sel": 798,
      "ram": 799,
      "ution": 800,
      "ased": 801,
      "Ġadd": 802,
      "Ġsub": 803,
      "ility": 804,
      "meric": 805,
      "ten": 806,
      "ited": 807,
      "ife": 808,
      "ade": 809,
      "ful": 810,
      "ible": 811,
      "Ġpr": 812,
      "..": 813,
      "ology": 814,
      "cy": 815,
      "ists": 816,
      "row": 817,
      "gan": 818,
      "Ġinv": 819,
      "ange": 820,
      "Ġ18": 821,
      "Ġshould": 822,
      "ures": 823,
      "Ġinter": 824,
      "In": 825,
      "ween": 826,
      "fore": 827,
      "Ġco": 828,
      "Ġfe": 829,
      "Ġhel": 830,
      "Ġcould": 831,
      "Ġsupp": 832,
      "ident": 833,
      "ered": 834,
      "Ġrem": 835,
      "ble": 836,
      "Ġfl": 837,
      "Ġpres": 838,
      "ng": 839,
      "Ġ5": 840,
      "ĠAs": 841,
      "Ġrese": 842,
      "ormation": 843,
      "ick": 844,
      "uch": 845,
      "eth": 846,
      "Ġhelp": 847,
      "Ġbetween": 848,
      "Ġwhere": 849,
      "Ġpol": 850,
      "ily": 851,
      "hes": 852,
      "Ġcent": 853,
      "ft": 854,
      "Ġdiffere": 855,
      "ivers": 856,
      "Ġsaid": 857,
      "ism": 858,
      "ĠAmeric": 859,
      "Ġnum": 860,
      "gy": 861,
      "its": 862,
      "ins": 863,
      "ract": 864,
      "chn": 865,
      "vern": 866,
      "Ġtrans": 867,
      "Ġcount": 868,
      "Ġear": 869,
      "Ġwell": 870,
      "xt": 871,
      "Ġform": 872,
      "ict": 873,
      "ever": 874,
      "Ġsm": 875,
      "Ġfound": 876,
      "ont": 877,
      "Ġlar": 878,
      "land": 879,
      "Ġcall": 880,
      "urn": 881,
      "Ġhum": 882,
      "ants": 883,
      "Ġ201": 884,
      "chool": 885,
      "Ġmod": 886,
      "Ġexam": 887,
      "Ġhigh": 888,
      "Ġpers": 889,
      "ural": 890,
      "Ġref": 891,
      "ature": 892,
      "itt": 893,
      ".\"": 894,
      "Ġafter": 895,
      "ually": 896,
      "Ġlong": 897,
      "Ġmed": 898,
      "Ġpub": 899,
      "ved": 900,
      "oy": 901,
      "Ġdet": 902,
      "Ġthose": 903,
      "Ġjust": 904,
      "ef": 905,
      "Ġinst": 906,
      "cept": 907,
      "omm": 908,
      "cer": 909,
      "ines": 910,
      "ĠPro": 911,
      "cent": 912,
      "eral": 913,
      "other": 914,
      "Ġmake": 915,
      "Ġbu": 916,
      "Ġed": 917,
      "Ġeven": 918,
      "Ġloc": 919,
      "Ġworld": 920,
      "Ġher": 921,
      "Ġext": 922,
      "vent": 923,
      "ases": 924,
      "Ġsign": 925,
      "Ġdef": 926,
      "Ġeffect": 927,
      "Ġthen": 928,
      "Ġright": 929,
      "iew": 930,
      "||": 931,
      "ĠAl": 932,
      "ically": 933,
      "19": 934,
      "roup": 935,
      "ork": 936,
      "Ġdist": 937,
      "Ġdisc": 938,
      "Ġinformation": 939,
      "Th": 940,
      "Ġimport": 941,
      "Ġknow": 942,
      "Ġprog": 943,
      "Ġbecause": 944,
      "Ġget": 945,
      "ds": 946,
      "led": 947,
      "Ġway": 948,
      "Ġvery": 949,
      "Ġhealth": 950,
      "ward": 951,
      "Ġsee": 952,
      "Ġsim": 953,
      "Ġincre": 954,
      "Ġpat": 955,
      "Ġbeing": 956,
      "Ġsame": 957,
      "iron": 958,
      "Ġfol": 959,
      "Ġcar": 960,
      "ives": 961,
      "ck": 962,
      "Ġca": 963,
      "ues": 964,
      "imes": 965,
      "io": 966,
      "Ġresp": 967,
      "Ġfact": 968,
      "Ġpartic": 969,
      "ran": 970,
      "Ġsci": 971,
      "Ġsec": 972,
      "aking": 973,
      "ĠWh": 974,
      "ruct": 975,
      "arm": 976,
      "Ġexper": 977,
      "get": 978,
      "Ġmade": 979,
      "Ġcommun": 980,
      "Ġfam": 981,
      "ather": 982,
      "Ġtechn": 983,
      "Ġmuch": 984,
      "Ġ6": 985,
      "ness": 986,
      "con": 987,
      "Ġcell": 988,
      "Ġmon": 989,
      "Ġgra": 990,
      "Ġduring": 991,
      "Ġart": 992,
      "ĠNew": 993,
      "the": 994,
      "iversity": 995,
      "ized": 996,
      "ata": 997,
      "ex": 998,
      "Ġdifferent": 999,
      "Ġset": 1000,
      "Ġstate": 1001,
      "Ġevery": 1002,
      "gg": 1003,
      "Ġke": 1004,
      "ros": 1005,
      "Ġmem": 1006,
      "Ġaut": 1007,
      "Ġeach": 1008,
      "Ġown": 1009,
      "Ġagain": 1010,
      "Ġent": 1011,
      "any": 1012,
      "Ġrequ": 1013,
      "Ġvar": 1014,
      "Ġpop": 1015,
      "ĠAn": 1016,
      "und": 1017,
      "Ġresult": 1018,
      "Ġgovern": 1019,
      "ĠFor": 1020,
      "Ġchildren": 1021,
      "Ġmy": 1022,
      "ages": 1023,
      "Ġdep": 1024,
      "Ġend": 1025,
      "ince": 1026,
      "Ġshe": 1027,
      "ven": 1028,
      "oh": 1029,
      "hem": 1030,
      "Ġtyp": 1031,
      "Ġback": 1032,
      "ĠAr": 1033,
      "ined": 1034,
      "ĠâĢĵ": 1035,
      "ury": 1036,
      "ection": 1037,
      "orn": 1038,
      "viron": 1039,
      "ars": 1040,
      "Ġfollow": 1041,
      "form": 1042,
      "irect": 1043,
      "Ġgroup": 1044,
      "ah": 1045,
      "Ġlife": 1046,
      "Ġlear": 1047,
      "Ġcur": 1048,
      "Ġprocess": 1049,
      "Ġcre": 1050,
      "ished": 1051,
      "Ġshow": 1052,
      "'t": 1053,
      "ize": 1054,
      "Ġhim": 1055,
      "000": 1056,
      "ĠThey": 1057,
      "ee": 1058,
      "ty": 1059,
      "Ġsoc": 1060,
      "Ġstudy": 1061,
      "Ġlevel": 1062,
      "Ġtest": 1063,
      ",\"": 1064,
      "Ġnow": 1065,
      "ĠRe": 1066,
      "ody": 1067,
      "ax": 1068,
      "Ġ199": 1069,
      "Ġpower": 1070,
      ".âĢĿ": 1071,
      "ergy": 1072,
      "Ġdoes": 1073,
      ".,": 1074,
      "Ġcomple": 1075,
      "ĠInd": 1076,
      "ale": 1077,
      "Ġmin": 1078,
      "ral": 1079,
      "Ġboth": 1080,
      "hip": 1081,
      "inal": 1082,
      "Ġins": 1083,
      "Ġhist": 1084,
      "ting": 1085,
      "Ġocc": 1086,
      "ient": 1087,
      "rol": 1088,
      "omen": 1089,
      "ute": 1090,
      "ix": 1091,
      "Ġsmall": 1092,
      "Ġlead": 1093,
      "Ġfind": 1094,
      "Ġschool": 1095,
      "Ġtreat": 1096,
      "Ġbefore": 1097,
      "Ġav": 1098,
      "Ġimportant": 1099,
      "Ġbo": 1100,
      "Ġproble": 1101,
      "Ġread": 1102,
      "ĠWe": 1103,
      "ron": 1104,
      "Ġsk": 1105,
      "ĠSp": 1106,
      "read": 1107,
      "ices": 1108,
      "Ġperson": 1109,
      "iel": 1110,
      "vironment": 1111,
      "Ġ7": 1112,
      "ĠIf": 1113,
      "Ġthree": 1114,
      "nce": 1115,
      "Ġdise": 1116,
      "Ġstr": 1117,
      "Ġprovid": 1118,
      "Ġ10": 1119,
      "ially": 1120,
      "Ġser": 1121,
      "Ġstudents": 1122,
      "Ġnumber": 1123,
      "ves": 1124,
      "Ġresearch": 1125,
      "ĠIs": 1126,
      "Ġdown": 1127,
      "Ġgood": 1128,
      "cl": 1129,
      "imate": 1130,
      "Ġorgan": 1131,
      "ving": 1132,
      "Ġexpl": 1133,
      "Ġdid": 1134,
      "der": 1135,
      "hers": 1136,
      "Ġprot": 1137,
      "ination": 1138,
      "Ġposs": 1139,
      "Ġreport": 1140,
      "ulation": 1141,
      "Ġbel": 1142,
      "Ġgl": 1143,
      "Ġland": 1144,
      "Ġoften": 1145,
      "up": 1146,
      "ĠBut": 1147,
      "ital": 1148,
      "Ġless": 1149,
      "ters": 1150,
      "Ġest": 1151,
      "Ġusing": 1152,
      "Ġcontin": 1153,
      "Ġhuman": 1154,
      "Ġelect": 1155,
      "ivid": 1156,
      "stit": 1157,
      "Ġlarge": 1158,
      "aj": 1159,
      "self": 1160,
      "gen": 1161,
      "Ġcalled": 1162,
      "air": 1163,
      "rent": 1164,
      "ave": 1165,
      "ared": 1166,
      "Ġdata": 1167,
      "Ġvis": 1168,
      "Ġexample": 1169,
      "lear": 1170,
      "Ġwhile": 1171,
      "orth": 1172,
      "Ġfood": 1173,
      "Ġmust": 1174,
      "bers": 1175,
      "ains": 1176,
      "ĠHow": 1177,
      "ull": 1178,
      "Ġmet": 1179,
      "âĢĶ": 1180,
      "Ġplan": 1181,
      "Ġsol": 1182,
      "ier": 1183,
      "Ġris": 1184,
      "ring": 1185,
      "Ġday": 1186,
      "Ġgreat": 1187,
      "ock": 1188,
      "Ġhand": 1189,
      "Ġ8": 1190,
      "Ġserv": 1191,
      "Ġmain": 1192,
      "oun": 1193,
      "stand": 1194,
      "Ġpublic": 1195,
      "ior": 1196,
      "Ġactiv": 1197,
      "Ġfun": 1198,
      "Ġret": 1199,
      "Ġpoint": 1200,
      "ton": 1201,
      "outh": 1202,
      "osed": 1203,
      "Ġgovernment": 1204,
      "Ġchar": 1205,
      "Ġcour": 1206,
      "uss": 1207,
      "ians": 1208,
      "Ġtake": 1209,
      "Ġclass": 1210,
      "day": 1211,
      "Ġconf": 1212,
      "Ġaround": 1213,
      "ash": 1214,
      "conom": 1215,
      "Ġgrow": 1216,
      "ĠAmerican": 1217,
      "Ġcond": 1218,
      "Ġ9": 1219,
      "ger": 1220,
      "ĠDe": 1221,
      "Ġcommon": 1222,
      "Ġdesign": 1223,
      "ĠUniversity": 1224,
      "iqu": 1225,
      "Ġop": 1226,
      "Ġwrit": 1227,
      "Ġgener": 1228,
      "Ġincluding": 1229,
      "reen": 1230,
      "ality": 1231,
      "com": 1232,
      "ĠAnd": 1233,
      "Ġredu": 1234,
      "ouse": 1235,
      "iver": 1236,
      "Ġthough": 1237,
      "Ġconsid": 1238,
      "de": 1239,
      "itions": 1240,
      "akes": 1241,
      "Ġval": 1242,
      "acter": 1243,
      "way": 1244,
      "Ġlaw": 1245,
      "Ġbody": 1246,
      "10": 1247,
      "iety": 1248,
      "erest": 1249,
      "Ġcor": 1250,
      "Ġdirect": 1251,
      "Ġsom": 1252,
      "Ġlook": 1253,
      "man": 1254,
      "ium": 1255,
      "Ġsupport": 1256,
      "This": 1257,
      "amp": 1258,
      "ross": 1259,
      "Ġstand": 1260,
      "ources": 1261,
      "ission": 1262,
      "to": 1263,
      "oci": 1264,
      "Ġadv": 1265,
      "Ġknown": 1266,
      "ris": 1267,
      "ted": 1268,
      "illion": 1269,
      "Ġstill": 1270,
      "ĠCon": 1271,
      "Ġdesc": 1272,
      "Ġallow": 1273,
      "Wh": 1274,
      "Ġenergy": 1275,
      "Ġplace": 1276,
      "Ġmat": 1277,
      "20": 1278,
      "ional": 1279,
      "eg": 1280,
      "Ġequ": 1281,
      "Ġtem": 1282,
      "ense": 1283,
      "Ġsl": 1284,
      "Ġpercent": 1285,
      "esp": 1286,
      "ired": 1287,
      "aterial": 1288,
      "Ġagainst": 1289,
      "Ġcap": 1290,
      "oid": 1291,
      "ries": 1292,
      "iod": 1293,
      "Ġenvironment": 1294,
      "raph": 1295,
      "ner": 1296,
      "Ġmight": 1297,
      "Ġfew": 1298,
      "Ġstart": 1299,
      "Ġwithout": 1300,
      "iving": 1301,
      "Ġanother": 1302,
      "Ġappro": 1303,
      "rist": 1304,
      "Ġphys": 1305,
      "Ġdem": 1306,
      "ording": 1307,
      "Ġcare": 1308,
      "ĠSe": 1309,
      "Ġiss": 1310,
      "Ġchang": 1311,
      "Ġquest": 1312,
      "ertain": 1313,
      "ected": 1314,
      "Ġeduc": 1315,
      "Ġarea": 1316,
      ",âĢĿ": 1317,
      "Ġthink": 1318,
      "Ġdisease": 1319,
      "Ġbeh": 1320,
      "ization": 1321,
      "ug": 1322,
      "ration": 1323,
      "Ġ'": 1324,
      "âĢĵ": 1325,
      "ĠComm": 1326,
      "lished": 1327,
      "ajor": 1328,
      "Ġgu": 1329,
      "ining": 1330,
      "ified": 1331,
      "ĠUnited": 1332,
      "Ġscient": 1333,
      "use": 1334,
      "iven": 1335,
      "Ġsays": 1336,
      "Ġeconom": 1337,
      "Ġchange": 1338,
      "Ġcontrol": 1339,
      "Ġinterest": 1340,
      "itive": 1341,
      "ccess": 1342,
      "Ġdevelopment": 1343,
      "Ġleg": 1344,
      "ĠCol": 1345,
      "ĠPh": 1346,
      "ret": 1347,
      "Ġide": 1348,
      "arent": 1349,
      "here": 1350,
      "Ġpresent": 1351,
      "ological": 1352,
      "az": 1353,
      "less": 1354,
      "Ġproduct": 1355,
      "els": 1356,
      "lish": 1357,
      "Ġpract": 1358,
      "ffic": 1359,
      "Ġbelie": 1360,
      "ĠThese": 1361,
      "Ġmaterial": 1362,
      "ason": 1363,
      "atural": 1364,
      "Ġnear": 1365,
      "att": 1366,
      "Ġcaus": 1367,
      "ĠAt": 1368,
      "ained": 1369,
      "Ġwithin": 1370,
      "arc": 1371,
      "line": 1372,
      "Ġmil": 1373,
      "rodu": 1374,
      "Ġspecies": 1375,
      "Ġproject": 1376,
      "Ġ&": 1377,
      "Ġpass": 1378,
      "ived": 1379,
      "ĠThere": 1380,
      "ote": 1381,
      "Ġant": 1382,
      "Ġwar": 1383,
      "ption": 1384,
      "ien": 1385,
      "Ġpar": 1386,
      "ern": 1387,
      "Ġair": 1388,
      "Ġbas": 1389,
      "âĢľ": 1390,
      "Ġbro": 1391,
      "ential": 1392,
      "ividual": 1393,
      "Ġ15": 1394,
      "med": 1395,
      "bs": 1396,
      "Ġrest": 1397,
      "ets": 1398,
      "Ġve": 1399,
      "ina": 1400,
      "ering": 1401,
      "Ġunderstand": 1402,
      "Ġident": 1403,
      "Ġwomen": 1404,
      "hor": 1405,
      "Ġbuild": 1406,
      "Ġ[": 1407,
      "Ġearly": 1408,
      "erc": 1409,
      "Ġprogram": 1410,
      "ĠAd": 1411,
      "Ġsever": 1412,
      "Ġobject": 1413,
      "ned": 1414,
      "ames": 1415,
      "ats": 1416,
      "ĠCan": 1417,
      "ield": 1418,
      "me": 1419,
      "sp": 1420,
      "Ġlast": 1421,
      "Ġoper": 1422,
      "Ġeas": 1423,
      "Ġinclude": 1424,
      "ĠStates": 1425,
      "gin": 1426,
      "ently": 1427,
      "Ġfamily": 1428,
      "Ġsay": 1429,
      "Ġbre": 1430,
      "ĠRes": 1431,
      "ĠGod": 1432,
      "Ġblood": 1433,
      "of": 1434,
      "osp": 1435,
      "Ġoccur": 1436,
      "eng": 1437,
      "ww": 1438,
      "ĠEng": 1439,
      "Ġcells": 1440,
      "Ġanim": 1441,
      "Ġmajor": 1442,
      "Ġmeas": 1443,
      "rap": 1444,
      "sy": 1445,
      "ĠNational": 1446,
      "Ġparticular": 1447,
      "ograph": 1448,
      "Ġlight": 1449,
      "ĠCl": 1450,
      "Ġsocial": 1451,
      "ability": 1452,
      "Ġcurrent": 1453,
      "ank": 1454,
      "Ġmove": 1455,
      "Ġorig": 1456,
      "Ġmar": 1457,
      "atic": 1458,
      "Ġsecond": 1459,
      "ĠZ": 1460,
      "Ġtri": 1461,
      "Ġlow": 1462,
      "angu": 1463,
      "oms": 1464,
      "Ġele": 1465,
      "Ġlim": 1466,
      "Ġunt": 1467,
      "...": 1468,
      "ator": 1469,
      "ethod": 1470,
      "Ġprof": 1471,
      "Ġdev": 1472,
      "rain": 1473,
      "Ġindividual": 1474,
      "12": 1475,
      "Ġet": 1476,
      "Ġold": 1477,
      "Ġpos": 1478,
      "Ġopp": 1479,
      "Ġprop": 1480,
      "Ġpur": 1481,
      "Ġpress": 1482,
      "cing": 1483,
      "Ġconst": 1484,
      "Ġinvol": 1485,
      "Ġlocal": 1486,
      "ource": 1487,
      "Ġprovide": 1488,
      "Ġbir": 1489,
      "Ġavail": 1490,
      "ittle": 1491,
      "ĠEn": 1492,
      "Ġwant": 1493,
      "Ġname": 1494,
      "Ġseveral": 1495,
      "though": 1496,
      "Ġfore": 1497,
      "ards": 1498,
      "Ġhistory": 1499,
      "gn": 1500,
      "Ġhome": 1501,
      "It": 1502,
      "Ġcountry": 1503,
      "ead": 1504,
      "Ġpot": 1505,
      "resent": 1506,
      "ention": 1507,
      "ĠCent": 1508,
      "Ġeng": 1509,
      "idence": 1510,
      "ision": 1511,
      "ĠSh": 1512,
      "Ġbecome": 1513,
      "Ġter": 1514,
      "Ġorder": 1515,
      "ids": 1516,
      "ĠYou": 1517,
      "Ġsit": 1518,
      "ik": 1519,
      "Ġlater": 1520,
      "18": 1521,
      "Ġtreatment": 1522,
      "Ġrisk": 1523,
      "Ġdon": 1524,
      "Ġ17": 1525,
      "alk": 1526,
      "Ġsince": 1527,
      "view": 1528,
      "omp": 1529,
      "Ġopen": 1530,
      "Ġprom": 1531,
      "Ġben": 1532,
      "Ġaddition": 1533,
      "inc": 1534,
      "Ġcult": 1535,
      "Ġfour": 1536,
      "olution": 1537,
      "Ġmen": 1538,
      "Ġhere": 1539,
      "ĠWhen": 1540,
      "Ġbi": 1541,
      "Ġtre": 1542,
      "Ġmus": 1543,
      "Ġtop": 1544,
      "ohn": 1545,
      "Ġperform": 1546,
      "Ġareas": 1547,
      "ify": 1548,
      "ended": 1549,
      "ĠChrist": 1550,
      "ged": 1551,
      "Ġtoo": 1552,
      "Ġproper": 1553,
      "eed": 1554,
      "Ġdeterm": 1555,
      "Ġfar": 1556,
      "ĠHowever": 1557,
      "ware": 1558,
      "ĠQ": 1559,
      "Ġpolit": 1560,
      "Ġview": 1561,
      "Ġamong": 1562,
      "ients": 1563,
      "ĠEx": 1564,
      "face": 1565,
      "ories": 1566,
      "Ġfre": 1567,
      "urop": 1568,
      "let": 1569,
      "iter": 1570,
      "Ġlo": 1571,
      "abor": 1572,
      "Ġmark": 1573,
      "Ġsuccess": 1574,
      "Ġtimes": 1575,
      "Ġel": 1576,
      "Ġpossible": 1577,
      "Ġcertain": 1578,
      "Ġpost": 1579,
      "Ġfin": 1580,
      "Ġmeans": 1581,
      "ably": 1582,
      "Ġpri": 1583,
      "Ġavailable": 1584,
      "Ġrun": 1585,
      "par": 1586,
      "une": 1587,
      "ples": 1588,
      "lu": 1589,
      "Ġperiod": 1590,
      "Ġsym": 1591,
      "Ġche": 1592,
      "ither": 1593,
      "Ġbetter": 1594,
      "Ġimpro": 1595,
      "ternational": 1596,
      "Ġbest": 1597,
      "ĠâĢĶ": 1598,
      "Ġmethod": 1599,
      "ĠAf": 1600,
      "Ġnon": 1601,
      "ploy": 1602,
      "Ġplay": 1603,
      "ĠMed": 1604,
      "Ġfollowing": 1605,
      "11": 1606,
      "Ġfree": 1607,
      "Ġstruct": 1608,
      "Ġhig": 1609,
      "Ġcentury": 1610,
      "irc": 1611,
      "Ġanal": 1612,
      "ude": 1613,
      "ways": 1614,
      "iness": 1615,
      "ĠPl": 1616,
      "Ġsaf": 1617,
      "Ġkeep": 1618,
      "Ġrece": 1619,
      "ley": 1620,
      "Ġput": 1621,
      "200": 1622,
      "Ġcost": 1623,
      "oint": 1624,
      "icle": 1625,
      "Ġ198": 1626,
      "Ġreal": 1627,
      "urope": 1628,
      "ĠEar": 1629,
      "tt": 1630,
      "ggest": 1631,
      "ĠSci": 1632,
      "ĠTo": 1633,
      "Ġdel": 1634,
      "sw": 1635,
      "Ġable": 1636,
      "Ġcause": 1637,
      "ole": 1638,
      "unt": 1639,
      "urther": 1640,
      "atory": 1641,
      "Ġwee": 1642,
      "Ġothers": 1643,
      "rid": 1644,
      "ends": 1645,
      "Ġrad": 1646,
      "ym": 1647,
      "Ġbased": 1648,
      "ĠOn": 1649,
      "ience": 1650,
      "oks": 1651,
      "ilar": 1652,
      "Ġgiven": 1653,
      "por": 1654,
      "Ġlist": 1655,
      "Ġcase": 1656,
      "etic": 1657,
      "Ġobs": 1658,
      "Ġur": 1659,
      "Ġfac": 1660,
      "Ġuntil": 1661,
      "ler": 1662,
      "Ġrecord": 1663,
      "Ġ12": 1664,
      "Ġseem": 1665,
      "Ġmean": 1666,
      "dition": 1667,
      "Ġaffect": 1668,
      "ised": 1669,
      "Ġaccess": 1670,
      "Ġspace": 1671,
      "Ġpain": 1672,
      "Ġnatural": 1673,
      "obal": 1674,
      "work": 1675,
      "ental": 1676,
      "Ġlangu": 1677,
      "Ġcancer": 1678,
      "Ġsignific": 1679,
      "ored": 1680,
      "Ġcomput": 1681,
      "Ġsuggest": 1682,
      "Ġappear": 1683,
      "ills": 1684,
      "Ġmonth": 1685,
      "be": 1686,
      "Ġ$": 1687,
      "over": 1688,
      "aken": 1689,
      "Ġlittle": 1690,
      "isc": 1691,
      "Ġprevent": 1692,
      "Ġmillion": 1693,
      "Ġ16": 1694,
      "Ġhapp": 1695,
      "\".": 1696,
      "alf": 1697,
      "Ġthings": 1698,
      "Ġhead": 1699,
      "ured": 1700,
      "pr": 1701,
      "Ġproblems": 1702,
      "Ġclear": 1703,
      "not": 1704,
      "ĠOr": 1705,
      "ately": 1706,
      "ĠJohn": 1707,
      "ling": 1708,
      "Ġ.": 1709,
      "eb": 1710,
      "Ġpopulation": 1711,
      "ething": 1712,
      "Ġdeath": 1713,
      "ĠBrit": 1714,
      "ĠJew": 1715,
      "aim": 1716,
      "Ġshort": 1717,
      "Ġamount": 1718,
      "Ġdescrib": 1719,
      "Ġturn": 1720,
      "Ġauthor": 1721,
      "Ġbook": 1722,
      "Ġassoci": 1723,
      "Ġplant": 1724,
      "idd": 1725,
      "ĠAll": 1726,
      "Ġtemper": 1727,
      "ides": 1728,
      "ĠAfric": 1729,
      "Ġcome": 1730,
      "aps": 1731,
      "Ġ0": 1732,
      "Ġrele": 1733,
      "ung": 1734,
      "ĠEurope": 1735,
      "mber": 1736,
      "ument": 1737,
      "Ġsing": 1738,
      "Ġlet": 1739,
      "itor": 1740,
      "ope": 1741,
      "pect": 1742,
      "Ġage": 1743,
      "Ġcomb": 1744,
      "Ġer": 1745,
      "ĠUS": 1746,
      "Ġfunction": 1747,
      "aper": 1748,
      "nal": 1749,
      "Ġlevels": 1750,
      "orts": 1751,
      "Ġabove": 1752,
      "Ġmot": 1753,
      "app": 1754,
      "enn": 1755,
      "Ġleft": 1756,
      "rate": 1757,
      "orld": 1758,
      "ogn": 1759,
      "As": 1760,
      "ances": 1761,
      "Ġhard": 1762,
      "Ġchem": 1763,
      "min": 1764,
      "ĠWar": 1765,
      "ales": 1766,
      "Ġleast": 1767,
      "Ġindust": 1768,
      "ledge": 1769,
      "Ġspecial": 1770,
      "for": 1771,
      "ones": 1772,
      "ued": 1773,
      "vious": 1774,
      "Ġbenef": 1775,
      "elf": 1776,
      "Ġresearc": 1777,
      "Ġproblem": 1778,
      "50": 1779,
      "Ġsomething": 1780,
      "by": 1781,
      "Ġsite": 1782,
      "Ġill": 1783,
      "rug": 1784,
      "Ġrepresent": 1785,
      "Ġsw": 1786,
      "oph": 1787,
      "ences": 1788,
      "ray": 1789,
      "Ġusually": 1790,
      "Ġmembers": 1791,
      "Ġapplic": 1792,
      "aster": 1793,
      "ĠTe": 1794,
      "Ġestab": 1795,
      "Ġcases": 1796,
      "Ġfil": 1797,
      "Ġexist": 1798,
      "__": 1799,
      "ĠNorth": 1800,
      "Ġ197": 1801,
      "ocus": 1802,
      "Ġbecame": 1803,
      "iam": 1804,
      "Ġbus": 1805,
      "erence": 1806,
      "ĠBe": 1807,
      "Ġmag": 1808,
      "Ġcrit": 1809,
      "Ġwords": 1810,
      "Ġrights": 1811,
      "ormal": 1812,
      "Ġterm": 1813,
      "ctor": 1814,
      "Ġheart": 1815,
      "Ġdr": 1816,
      "Ġsystems": 1817,
      "Ġhowever": 1818,
      "ox": 1819,
      "Ġconn": 1820,
      "Ġinvest": 1821,
      "Ġcommunity": 1822,
      "ape": 1823,
      "Ġdays": 1824,
      "Ġtechnology": 1825,
      "Ġalong": 1826,
      "Ġvol": 1827,
      "Ġflow": 1828,
      "icult": 1829,
      "Ġgre": 1830,
      "ators": 1831,
      "Ġdri": 1832,
      "30": 1833,
      "Ġyoung": 1834,
      "ots": 1835,
      "rim": 1836,
      "Ġmult": 1837,
      "Ġoffic": 1838,
      "Ġtype": 1839,
      "Ġtru": 1840,
      "Ġcal": 1841,
      "uture": 1842,
      "ĠSoc": 1843,
      "NA": 1844,
      "Ġdra": 1845,
      "lement": 1846,
      "Ġcountries": 1847,
      "If": 1848,
      "het": 1849,
      "Ġpast": 1850,
      "We": 1851,
      "Ġgeneral": 1852,
      "Ġlikely": 1853,
      "Ġcourse": 1854,
      "Ġ14": 1855,
      "wh": 1856,
      "Ġconditions": 1857,
      "val": 1858,
      "ication": 1859,
      "Ġ--": 1860,
      "Ġsurface": 1861,
      "Ġcirc": 1862,
      "Ġnext": 1863,
      "right": 1864,
      "Ġside": 1865,
      "selves": 1866,
      "Ġlearning": 1867,
      "anc": 1868,
      "Ġnecess": 1869,
      "ĠGen": 1870,
      "most": 1871,
      "yd": 1872,
      "Ġvir": 1873,
      "ending": 1874,
      "Ġnever": 1875,
      "ember": 1876,
      "Ġparent": 1877,
      "Ġcharacter": 1878,
      "Ġchanges": 1879,
      "ipp": 1880,
      "ruction": 1881,
      "Ġspecific": 1882,
      "Ġnet": 1883,
      "Ġsignificant": 1884,
      "ortun": 1885,
      "ands": 1886,
      "Ġtoget": 1887,
      "ours": 1888,
      "Ġtogether": 1889,
      "ode": 1890,
      "aining": 1891,
      "ĠGerm": 1892,
      "atch": 1893,
      "Ġenc": 1894,
      "ison": 1895,
      "ivil": 1896,
      "St": 1897,
      "Ġz": 1898,
      "Ġbegin": 1899,
      "ĠMay": 1900,
      "ĠSc": 1901,
      "Ġhaving": 1902,
      "Ġresults": 1903,
      "ird": 1904,
      "Ġdue": 1905,
      "ĠDep": 1906,
      "Ġsimilar": 1907,
      "oman": 1908,
      "ecially": 1909,
      "ederal": 1910,
      "Ġmaking": 1911,
      "artment": 1912,
      "ane": 1913,
      "Ġworks": 1914,
      "Ġeducation": 1915,
      "Ġ30": 1916,
      "oot": 1917,
      "earch": 1918,
      "Ġplac": 1919,
      "Ġcomplete": 1920,
      "An": 1921,
      "asing": 1922,
      "Ġgr": 1923,
      "ĠEarth": 1924,
      "cle": 1925,
      "sc": 1926,
      "Ġmov": 1927,
      "ĠWhat": 1928,
      "ilities": 1929,
      "ĠYork": 1930,
      "Ġ11": 1931,
      "Ġprim": 1932,
      "Ġcolle": 1933,
      "Ġaway": 1934,
      "af": 1935,
      "Ġpolitical": 1936,
      "ĠOne": 1937,
      "Ġkind": 1938,
      "Ġlanguage": 1939,
      "Ġask": 1940,
      "Ġdam": 1941,
      "ĠRep": 1942,
      "Ġlower": 1943,
      "Ġrespons": 1944,
      "ively": 1945,
      "ĠGo": 1946,
      "especially": 1947,
      "Ġsum": 1948,
      "Ġcho": 1949,
      "Ġimpact": 1950,
      "ribut": 1951,
      "ĠSo": 1952,
      "Ġprofess": 1953,
      "rel": 1954,
      "ression": 1955,
      "Ġgroups": 1956,
      "ires": 1957,
      "Ġtoday": 1958,
      ".)": 1959,
      "Ġstudies": 1960,
      "What": 1961,
      "ĠLe": 1962,
      "There": 1963,
      "Ġplants": 1964,
      "ott": 1965,
      "oney": 1966,
      "Ġupon": 1967,
      "Ġgive": 1968,
      "Ġpatients": 1969,
      "ĠDr": 1970,
      "Ġ196": 1971,
      "Ġcity": 1972,
      "Ġcreat": 1973,
      "agement": 1974,
      "Ġstrong": 1975,
      "iation": 1976,
      "ency": 1977,
      "ilt": 1978,
      "apt": 1979,
      "lo": 1980,
      "iting": 1981,
      "Ġenough": 1982,
      "Ġfocus": 1983,
      "Ġlearn": 1984,
      "Ġey": 1985,
      "eter": 1986,
      "Ġsubject": 1987,
      "ps": 1988,
      "Ġfive": 1989,
      "ĠâĢĺ": 1990,
      "Ġdiscuss": 1991,
      "Ġincrease": 1992,
      "Ġfuture": 1993,
      "Ġfeel": 1994,
      "Ġword": 1995,
      "rams": 1996,
      "istic": 1997,
      "omes": 1998,
      "Ġ2012": 1999,
      "Ġeff": 2000,
      "Ġteac": 2001,
      "Ġdifficult": 2002,
      "Ġevidence": 2003,
      "ĠWorld": 2004,
      "13": 2005,
      "Ġfurther": 2006,
      "ĠAb": 2007,
      "Ġbehav": 2008,
      "ĠSy": 2009,
      "ges": 2010,
      "ublic": 2011,
      "Ġvarious": 2012,
      "ae": 2013,
      "Ġeffects": 2014,
      "Ġground": 2015,
      "Ġalways": 2016,
      "Ġhigher": 2017,
      "Ġline": 2018,
      "For": 2019,
      "Ġseen": 2020,
      "Ġoil": 2021,
      "Ġeither": 2022,
      "ĠMar": 2023,
      "Ġitself": 2024,
      "Ġreturn": 2025,
      "):": 2026,
      "ule": 2027,
      "rated": 2028,
      "ournal": 2029,
      "ĠThat": 2030,
      "Ġdoc": 2031,
      "ĠCal": 2032,
      "ĠGe": 2033,
      "Ġresearchers": 2034,
      "Ġfull": 2035,
      "Ġblack": 2036,
      "ĠAmerica": 2037,
      "Ġscience": 2038,
      "Ġrather": 2039,
      "duct": 2040,
      "ervation": 2041,
      "Ġfund": 2042,
      "Ġlive": 2043,
      "Ġprob": 2044,
      "Ġphot": 2045,
      "ready": 2046,
      "Ġprotect": 2047,
      "ster": 2048,
      "Ġnational": 2049,
      "Ġimm": 2050,
      "Ġmedical": 2051,
      "amin": 2052,
      "Ġpressure": 2053,
      "Ġloss": 2054,
      "Ġsex": 2055,
      "Ġfish": 2056,
      "ĠSome": 2057,
      "Ġresources": 2058,
      "Ġknowledge": 2059,
      "Ġdeveloped": 2060,
      "--": 2061,
      "amm": 2062,
      "ique": 2063,
      "Ġacross": 2064,
      "ront": 2065,
      "Ġess": 2066,
      "Ġespecially": 2067,
      "Ġstep": 2068,
      "ĠHis": 2069,
      "Ġcollect": 2070,
      "Ġwhether": 2071,
      "port": 2072,
      "son": 2073,
      "Ġfield": 2074,
      "ĠAct": 2075,
      "ibility": 2076,
      "ĠX": 2077,
      "Ġinflu": 2078,
      "side": 2079,
      "Ġaccording": 2080,
      "Ġtaken": 2081,
      "ream": 2082,
      "ĠAss": 2083,
      "Ġpolic": 2084,
      "ann": 2085,
      "aves": 2086,
      "alt": 2087,
      "acy": 2088,
      "Ġrequire": 2089,
      "ĠSouth": 2090,
      "etimes": 2091,
      "Ġclose": 2092,
      "17": 2093,
      "Ġann": 2094,
      "Ġneeds": 2095,
      "Ġlay": 2096,
      "thing": 2097,
      "sych": 2098,
      "Ġcame": 2099,
      "Ġemploy": 2100,
      "Ġaddress": 2101,
      "AS": 2102,
      "Ġworking": 2103,
      "itude": 2104,
      "ches": 2105,
      "overed": 2106,
      "Ġsingle": 2107,
      "Ġdrug": 2108,
      "Ġtry": 2109,
      "Ġdest": 2110,
      "Ġteam": 2111,
      "Ġred": 2112,
      "ĠCar": 2113,
      "Ġfall": 2114,
      "Ġmic": 2115,
      "Ġbelow": 2116,
      "Ġdia": 2117,
      "ules": 2118,
      "Ġwhy": 2119,
      "Ġindic": 2120,
      "Ġconsum": 2121,
      "Ġrelations": 2122,
      "Ġkill": 2123,
      "uel": 2124,
      "sh": 2125,
      "Ġconsider": 2126,
      "Ġla": 2127,
      "Ġthemselves": 2128,
      "Ġwhite": 2129,
      "Ġalready": 2130,
      "Ġevent": 2131,
      "Ġgoing": 2132,
      "Ġsent": 2133,
      "Ġways": 2134,
      "rict": 2135,
      "ush": 2136,
      "Ġtoward": 2137,
      "Ġcreate": 2138,
      "Ġquestion": 2139,
      "Ġconcer": 2140,
      "ysis": 2141,
      "Ġpublished": 2142,
      "Ġparticip": 2143,
      "ites": 2144,
      "Ġliving": 2145,
      "stitute": 2146,
      "Ã©": 2147,
      "Ġfail": 2148,
      "ĠAust": 2149,
      "hib": 2150,
      "ĠBy": 2151,
      "Ġpay": 2152,
      "ĠState": 2153,
      "Ġwr": 2154,
      "Ġregion": 2155,
      "ĠAm": 2156,
      "//": 2157,
      "Ġhalf": 2158,
      "Ġprote": 2159,
      "ĠHealth": 2160,
      "Ġreally": 2161,
      "ĠBl": 2162,
      "Ġ2010": 2163,
      "Ġrepl": 2164,
      "epend": 2165,
      "Ġhold": 2166,
      "osis": 2167,
      "Ġbrain": 2168,
      "gest": 2169,
      "lor": 2170,
      "Ġreason": 2171,
      "Ġneg": 2172,
      "ttp": 2173,
      "Ġopt": 2174,
      "ification": 2175,
      "Ġglobal": 2176,
      "Ġri": 2177,
      "14": 2178,
      "iol": 2179,
      "Ġonce": 2180,
      "15": 2181,
      "org": 2182,
      "Ġmodel": 2183,
      "Ġactivity": 2184,
      "Ġphysical": 2185,
      "ober": 2186,
      "Ġdone": 2187,
      "rown": 2188,
      "Ġskin": 2189,
      "Ġthought": 2190,
      "fer": 2191,
      "Ġtool": 2192,
      "Ġ13": 2193,
      "Ġsens": 2194,
      "roll": 2195,
      "oll": 2196,
      "ĠII": 2197,
      "aring": 2198,
      "Ġarg": 2199,
      "Ġhouse": 2200,
      "Ġtext": 2201,
      "Ġexperience": 2202,
      "Ġanimals": 2203,
      "Ġmodern": 2204,
      "like": 2205,
      "Ġmass": 2206,
      "Ġclimate": 2207,
      "ibr": 2208,
      "Ġeconomic": 2209,
      "itary": 2210,
      "ateg": 2211,
      "Ġaccount": 2212,
      "chie": 2213,
      "Ġdeg": 2214,
      "ĠHist": 2215,
      "Ġpred": 2216,
      "Ġgrowth": 2217,
      "://": 2218,
      "ER": 2219,
      "esc": 2220,
      "Ġinit": 2221,
      "Ġdi": 2222,
      "Ġreact": 2223,
      "ulations": 2224,
      "atures": 2225,
      "Ġsource": 2226,
      "verage": 2227,
      "Ġclaim": 2228,
      "Ġkey": 2229,
      "Ġhistor": 2230,
      "Ġ|": 2231,
      "Ġmeet": 2232,
      "ications": 2233,
      "reg": 2234,
      "Ġmind": 2235,
      "Ġtot": 2236,
      "Ġsun": 2237,
      "ptoms": 2238,
      "ĠEnglish": 2239,
      "Al": 2240,
      "aut": 2241,
      "urch": 2242,
      "urity": 2243,
      "Ġrange": 2244,
      "ened": 2245,
      "Ġincreased": 2246,
      "Ġcop": 2247,
      "Ġwind": 2248,
      "Ġrole": 2249,
      "itted": 2250,
      "Ġcomplex": 2251,
      "Ġtook": 2252,
      "Ġneeded": 2253,
      "ĠWith": 2254,
      "Ġscientists": 2255,
      "utes": 2256,
      "Ġstates": 2257,
      "augh": 2258,
      "Ġproducts": 2259,
      "fact": 2260,
      "my": 2261,
      "Ġbegan": 2262,
      "Ġactivities": 2263,
      "go": 2264,
      "Ġconcept": 2265,
      "Ġentire": 2266,
      "aching": 2267,
      "Ġcy": 2268,
      "Ġproduction": 2269,
      "Ġwide": 2270,
      "ivity": 2271,
      "Ġsepar": 2272,
      "Ġconsidered": 2273,
      "Ġenvironmental": 2274,
      "onst": 2275,
      "Ġstat": 2276,
      "Ġrecent": 2277,
      "Ġwhole": 2278,
      "Ġsize": 2279,
      "Ġabs": 2280,
      "nam": 2281,
      "Ġrelig": 2282,
      "Ġparts": 2283,
      "bon": 2284,
      "Ġcomputer": 2285,
      "Ġcreated": 2286,
      "Ġfrequ": 2287,
      "Ġansw": 2288,
      "Ġchemical": 2289,
      "Ġcannot": 2290,
      "Ġarticle": 2291,
      "reme": 2292,
      "ights": 2293,
      "Ġcamp": 2294,
      "rad": 2295,
      "Ġrecogn": 2296,
      "ĠPres": 2297,
      "Ġfamil": 2298,
      "fficient": 2299,
      "Ġpotential": 2300,
      "Ġself": 2301,
      "medi": 2302,
      "ĠIm": 2303,
      "Ġrelated": 2304,
      "Ġrequired": 2305,
      "estern": 2306,
      "attle": 2307,
      "Ġmoney": 2308,
      "iddle": 2309,
      "pro": 2310,
      "icine": 2311,
      "aged": 2312,
      "iple": 2313,
      "Ġrelative": 2314,
      "Ġweek": 2315,
      "now": 2316,
      "cient": 2317,
      "rie": 2318,
      "Ġprovides": 2319,
      "ĠPe": 2320,
      "16": 2321,
      "Ġfig": 2322,
      "ume": 2323,
      "Ġpriv": 2324,
      "Ġmakes": 2325,
      "ried": 2326,
      "Ġmor": 2327,
      "lying": 2328,
      "abit": 2329,
      "rought": 2330,
      "ĠResearch": 2331,
      "cil": 2332,
      "Ġsoft": 2333,
      "rect": 2334,
      "Ġsix": 2335,
      "Ġbig": 2336,
      "Ġ100": 2337,
      "Ġquestions": 2338,
      "oura": 2339,
      "Ġdom": 2340,
      "Ġwin": 2341,
      "Ġport": 2342,
      "Ġtemperature": 2343,
      "Ġcr": 2344,
      "Ġnature": 2345,
      "iment": 2346,
      "Ġbusiness": 2347,
      "How": 2348,
      "ask": 2349,
      "ĠCo": 2350,
      "ington": 2351,
      "Ġalmost": 2352,
      "Ġobserv": 2353,
      "Ġcut": 2354,
      "Ġchall": 2355,
      "Ġmaterials": 2356,
      "uation": 2357,
      "chan": 2358,
      "Ġ25": 2359,
      "Ġintrodu": 2360,
      "Ġactually": 2361,
      "Ġyet": 2362,
      "Ġ2011": 2363,
      "Ġdetail": 2364,
      "Ġissues": 2365,
      "ĠDepartment": 2366,
      "Ġstudent": 2367,
      "Ġsubst": 2368,
      "Ġver": 2369,
      "apan": 2370,
      "Ġtypes": 2371,
      "empt": 2372,
      "ĠBritish": 2373,
      "pid": 2374,
      "Ġtradition": 2375,
      "Ġvers": 2376,
      "vey": 2377,
      "Ġstory": 2378,
      "Ġinteract": 2379,
      "ius": 2380,
      "Ġpaper": 2381,
      "ĠStud": 2382,
      "Ġflu": 2383,
      "urs": 2384,
      "Ġshows": 2385,
      "ĠCenter": 2386,
      "mb": 2387,
      "order": 2388,
      "ched": 2389,
      "ĠMin": 2390,
      "atives": 2391,
      "uck": 2392,
      "Ġ50": 2393,
      "vere": 2394,
      "olic": 2395,
      "ĠComp": 2396,
      "Ġrate": 2397,
      "ĠCanad": 2398,
      "Ġcle": 2399,
      "ript": 2400,
      "Ġprovided": 2401,
      "Ġvalue": 2402,
      "Ġidea": 2403,
      "ai": 2404,
      "Ġpage": 2405,
      "Ġsound": 2406,
      "ety": 2407,
      "oses": 2408,
      "Ġstandard": 2409,
      "Ġwild": 2410,
      "Ch": 2411,
      "sequ": 2412,
      "Ġge": 2413,
      "Ġprograms": 2414,
      "Ġsuper": 2415,
      "Ġreduce": 2416,
      "oes": 2417,
      "Ġsam": 2418,
      "ables": 2419,
      "Ġimprove": 2420,
      "ĠBo": 2421,
      "ery": 2422,
      "Ġproduce": 2423,
      "Ġsense": 2424,
      "Ġlink": 2425,
      "Ġregard": 2426,
      "stitution": 2427,
      "ney": 2428,
      "When": 2429,
      "Ġachie": 2430,
      "ĠGu": 2431,
      "Ġsurv": 2432,
      "Ġearth": 2433,
      "Ġ/": 2434,
      "Ġadult": 2435,
      "minist": 2436,
      "eds": 2437,
      "To": 2438,
      "Ġtherap": 2439,
      "Ġgreen": 2440,
      "ĠCont": 2441,
      "Ġbuilding": 2442,
      "ply": 2443,
      "Ġtell": 2444,
      "ĠSec": 2445,
      "Ġsymptoms": 2446,
      "hing": 2447,
      "ĠShe": 2448,
      "acks": 2449,
      "ID": 2450,
      "adem": 2451,
      "ops": 2452,
      "iction": 2453,
      "lim": 2454,
      "Ġliter": 2455,
      "Ġdeb": 2456,
      "ĠNo": 2457,
      "Ġmaint": 2458,
      "Ġstructure": 2459,
      "Ġmonths": 2460,
      "Ġcit": 2461,
      "Ġgas": 2462,
      "ze": 2463,
      "umb": 2464,
      "ump": 2465,
      "ensive": 2466,
      "Ġcolor": 2467,
      "Ġassociated": 2468,
      "'re": 2469,
      "inary": 2470,
      "Ġnormal": 2471,
      "Ġpractice": 2472,
      "ĠScience": 2473,
      "Ġtrue": 2474,
      "amb": 2475,
      "Ġsure": 2476,
      "Ġarch": 2477,
      "Ġforce": 2478,
      "Ġconduct": 2479,
      "Ġmeasure": 2480,
      "Ġever": 2481,
      "Ġemer": 2482,
      "ĠJu": 2483,
      "Ġengine": 2484,
      "Ġlab": 2485,
      "ival": 2486,
      "put": 2487,
      "Ġaction": 2488,
      "erve": 2489,
      "rial": 2490,
      "Ġbuilt": 2491,
      "Ġnecessary": 2492,
      "Ġtax": 2493,
      "erous": 2494,
      "atter": 2495,
      "ES": 2496,
      "Ġcoun": 2497,
      "Ġtotal": 2498,
      "ĠAfter": 2499,
      "Ġaccept": 2500,
      "usion": 2501,
      "Ġtraining": 2502,
      "Ġ2008": 2503,
      "Ġlonger": 2504,
      "Ġheav": 2505,
      "Ġsett": 2506,
      "ister": 2507,
      "Ġprevious": 2508,
      "Ġquick": 2509,
      "Ġrecomm": 2510,
      "ging": 2511,
      "ĠJapan": 2512,
      "gram": 2513,
      "ĠCor": 2514,
      "ronic": 2515,
      "ene": 2516,
      "Ġfri": 2517,
      "lies": 2518,
      "Ġtown": 2519,
      "Ġthreat": 2520,
      "ĠEm": 2521,
      "ips": 2522,
      "Ġthroughout": 2523,
      "Ġled": 2524,
      "Ġcondition": 2525,
      "Ġrev": 2526,
      "ĠCons": 2527,
      "ĠMan": 2528,
      "Ġgreater": 2529,
      "ror": 2530,
      "Ġbirth": 2531,
      "ĠNe": 2532,
      "Ġspe": 2533,
      "ternal": 2534,
      "Ġservice": 2535,
      "Ġnuc": 2536,
      "duc": 2537,
      "lt": 2538,
      "Ġce": 2539,
      "izing": 2540,
      "Ġpattern": 2541,
      "osition": 2542,
      "Ġavoid": 2543,
      "Ġreported": 2544,
      "Ġoriginal": 2545,
      "Ġparents": 2546,
      "Ġrelationship": 2547,
      "Ġsimple": 2548,
      "ma": 2549,
      "ĠTr": 2550,
      "acc": 2551,
      "ĠInstitute": 2552,
      "Ġdesigned": 2553,
      "Ġopportun": 2554,
      "21": 2555,
      "lex": 2556,
      "Ġstri": 2557,
      "Ġissue": 2558,
      "uary": 2559,
      "Ġdig": 2560,
      "Ġens": 2561,
      "Ġorigin": 2562,
      "aters": 2563,
      "igation": 2564,
      "ropri": 2565,
      "ĠEd": 2566,
      "Ġmechan": 2567,
      "Ġfat": 2568,
      "leep": 2569,
      "ections": 2570,
      "Ġquality": 2571,
      "Ġtravel": 2572,
      "Ġcaused": 2573,
      "But": 2574,
      "Ġ2009": 2575,
      "Ġrespect": 2576,
      "Ġdiet": 2577,
      "ief": 2578,
      "Ġfarm": 2579,
      "arily": 2580,
      "ĠJan": 2581,
      "Ġnetwork": 2582,
      "Ġbar": 2583,
      "Ġ194": 2584,
      "Ġability": 2585,
      "Ġdiagn": 2586,
      "Ġcontain": 2587,
      "Ġcontact": 2588,
      "asc": 2589,
      "Ġtaking": 2590,
      "ached": 2591,
      "Ġ2007": 2592,
      "mon": 2593,
      "rand": 2594,
      "istance": 2595,
      "Ġsqu": 2596,
      "Ġshown": 2597,
      "Ġwritten": 2598,
      "ming": 2599,
      "ows": 2600,
      "rench": 2601,
      "Ġunderstanding": 2602,
      "Ġfederal": 2603,
      "Ġlot": 2604,
      "ĠDav": 2605,
      "Ġmarket": 2606,
      "based": 2607,
      "Ġmanagement": 2608,
      "raft": 2609,
      "olec": 2610,
      "imately": 2611,
      "Ġsometimes": 2612,
      "Ġterms": 2613,
      "Ġir": 2614,
      "Ġcivil": 2615,
      "Ġhours": 2616,
      "bo": 2617,
      "oon": 2618,
      "inks": 2619,
      "Ġsources": 2620,
      "amed": 2621,
      "dom": 2622,
      "Ġincreasing": 2623,
      "IS": 2624,
      "aries": 2625,
      "ccording": 2626,
      "ĠInternational": 2627,
      "Ġcoll": 2628,
      "icles": 2629,
      "cean": 2630,
      "Ġuses": 2631,
      "fully": 2632,
      "Ġforms": 2633,
      "Ġcomes": 2634,
      "Ġviol": 2635,
      "Ġbring": 2636,
      "utions": 2637,
      "ades": 2638,
      "Ġsuff": 2639,
      "undred": 2640,
      "Ġschools": 2641,
      "ĠCalif": 2642,
      "ino": 2643,
      "Ġstop": 2644,
      "ĠMus": 2645,
      "Ġeffective": 2646,
      "Ġpath": 2647,
      "Ġcontent": 2648,
      "Ġmatter": 2649,
      "Ġapproach": 2650,
      "Ġaff": 2651,
      "ctions": 2652,
      "ĠPress": 2653,
      "Ġexerc": 2654,
      "Ġvisit": 2655,
      "Ġtheory": 2656,
      "eration": 2657,
      "Ġanalysis": 2658,
      "Ġbur": 2659,
      "Ġemb": 2660,
      "Ġconc": 2661,
      "Ġproduced": 2662,
      "Ġinvolved": 2663,
      "Ġhttp": 2664,
      "Ġut": 2665,
      "ashington": 2666,
      "Ġlog": 2667,
      "On": 2668,
      "Ġattempt": 2669,
      "Ġgenerally": 2670,
      "Ġlate": 2671,
      "Ġscientific": 2672,
      "hern": 2673,
      "ressed": 2674,
      "Ġrefer": 2675,
      "Ġsimply": 2676,
      "ĠAustral": 2677,
      "ĠFran": 2678,
      "Ġofficial": 2679,
      "Ġprobably": 2680,
      "Ġsea": 2681,
      "aff": 2682,
      "yl": 2683,
      "lands": 2684,
      "Ġpurp": 2685,
      "aging": 2686,
      "ricult": 2687,
      "Ġnumbers": 2688,
      "25": 2689,
      "che": 2690,
      "ening": 2691,
      "Ġnation": 2692,
      "Ġvide": 2693,
      "Ġjob": 2694,
      "Ġoutside": 2695,
      "Ġindepend": 2696,
      "ising": 2697,
      "ĠCount": 2698,
      "Ġparticularly": 2699,
      "ira": 2700,
      "onse": 2701,
      "ĠSchool": 2702,
      "aving": 2703,
      "ĠKing": 2704,
      "Ġindividuals": 2705,
      "Ġdocument": 2706,
      "hood": 2707,
      "Ġdiv": 2708,
      "ĠRet": 2709,
      "Ġpopular": 2710,
      "pril": 2711,
      "see": 2712,
      "ĠAfrican": 2713,
      "Ġcapt": 2714,
      "Ġposition": 2715,
      "Ġspread": 2716,
      "ĠHar": 2717,
      "www": 2718,
      "Ġmovement": 2719,
      "haps": 2720,
      "Ġevents": 2721,
      "199": 2722,
      "Ġweight": 2723,
      "ornia": 2724,
      ");": 2725,
      "Ġdeveloping": 2726,
      "rew": 2727,
      "Ġpict": 2728,
      "ores": 2729,
      "Ġx": 2730,
      "Ġdeep": 2731,
      "Ġthus": 2732,
      "Ġservices": 2733,
      "Ġface": 2734,
      "osure": 2735,
      "Ġseries": 2736,
      "Ġsat": 2737,
      "Ġvit": 2738,
      "Ġetc": 2739,
      "Ġfront": 2740,
      "ana": 2741,
      "Ġ40": 2742,
      "useum": 2743,
      "Ġaverage": 2744,
      "Ġnorth": 2745,
      "irit": 2746,
      "Ġconcent": 2747,
      "Ġheat": 2748,
      "coh": 2749,
      "eding": 2750,
      "Ġfa": 2751,
      "ĠAug": 2752,
      "ĠQu": 2753,
      "Ġmeaning": 2754,
      "Ġbehavior": 2755,
      "nces": 2756,
      "ength": 2757,
      "ĠJewish": 2758,
      "Ġinj": 2759,
      "80": 2760,
      "You": 2761,
      "Ġfactors": 2762,
      "ĠPresident": 2763,
      "AR": 2764,
      "Ġthing": 2765,
      "Ġheld": 2766,
      "Ġslow": 2767,
      "orthern": 2768,
      "light": 2769,
      "Ġpersonal": 2770,
      "Ġbasic": 2771,
      "lease": 2772,
      "ĠRiver": 2773,
      "Ġthous": 2774,
      "ĠÂ": 2775,
      "Ġfem": 2776,
      "Ġlabor": 2777,
      "Ġcompany": 2778,
      "Ġcentral": 2779,
      "Ġdou": 2780,
      "ĠWill": 2781,
      "Ġjud": 2782,
      "Ġwhose": 2783,
      "ecause": 2784,
      "na": 2785,
      "ners": 2786,
      "ĠMarch": 2787,
      "lam": 2788,
      "where": 2789,
      "ender": 2790,
      "Ġincludes": 2791,
      "uk": 2792,
      "ĠPer": 2793,
      "Ġ24": 2794,
      "ĠChina": 2795,
      "Ġago": 2796,
      "ternet": 2797,
      "Ġremov": 2798,
      "Ġinterp": 2799,
      "ĠIndian": 2800,
      "Ġhundred": 2801,
      "ĠApp": 2802,
      "ĠInt": 2803,
      "Ġalthough": 2804,
      "Ġcarbon": 2805,
      "isms": 2806,
      "Ġonline": 2807,
      "Ġimage": 2808,
      "Ġindustry": 2809,
      "rast": 2810,
      "ĠMe": 2811,
      "ĠWashington": 2812,
      "Ġwriting": 2813,
      "Ġinteg": 2814,
      "Ġestablished": 2815,
      "abet": 2816,
      "ĠJune": 2817,
      "ĠPr": 2818,
      "ribution": 2819,
      "ĠAnt": 2820,
      "Ġox": 2821,
      "life": 2822,
      "Ġcompan": 2823,
      "Ġcompl": 2824,
      "hold": 2825,
      "Ġinternational": 2826,
      "Ġmess": 2827,
      "Ġimmedi": 2828,
      "Ġdoctor": 2829,
      "vention": 2830,
      "Ġdemonst": 2831,
      "Ġsou": 2832,
      "ese": 2833,
      "Ġexc": 2834,
      "ĠVal": 2835,
      "ĠCalifornia": 2836,
      "mosp": 2837,
      "Ġthird": 2838,
      "rael": 2839,
      "Ġsust": 2840,
      "AT": 2841,
      "bor": 2842,
      "cies": 2843,
      "Ġhost": 2844,
      "ĠMore": 2845,
      "ancy": 2846,
      "thern": 2847,
      "Ġserious": 2848,
      "uge": 2849,
      "Ġnut": 2850,
      "Ġpoll": 2851,
      "ON": 2852,
      "overy": 2853,
      "Ġpsych": 2854,
      "Ġmill": 2855,
      "Ġste": 2856,
      "aches": 2857,
      "ns": 2858,
      "âĢ¦": 2859,
      "Ġap": 2860,
      "ĠInf": 2861,
      "Ġking": 2862,
      "OR": 2863,
      "ĠEduc": 2864,
      "Ġcommand": 2865,
      "Ġfeet": 2866,
      "Ġbreak": 2867,
      "cell": 2868,
      "ulate": 2869,
      "ĠPart": 2870,
      "ĠFrench": 2871,
      "Ġtherefore": 2872,
      "Ġcauses": 2873,
      "ĠPar": 2874,
      "Ġvariety": 2875,
      "Ġcapital": 2876,
      "Ġmilitary": 2877,
      "unch": 2878,
      "Ġactive": 2879,
      "ĠWhile": 2880,
      "Ġbooks": 2881,
      "gency": 2882,
      "ĠJuly": 2883,
      "Ġdisp": 2884,
      "Ġbelieve": 2885,
      "ĠChristian": 2886,
      "ĠSu": 2887,
      "Ġaltern": 2888,
      "Ġcolon": 2889,
      "Ġpoor": 2890,
      "Ġassess": 2891,
      "Ġcontinue": 2892,
      "Ġanimal": 2893,
      "Ġsection": 2894,
      "ĠTra": 2895,
      "Ġperm": 2896,
      "reng": 2897,
      "Ġinstead": 2898,
      "Ġexperien": 2899,
      "Ġtar": 2900,
      "Ġreview": 2901,
      "Ġful": 2902,
      "Ġfire": 2903,
      "Ġattention": 2904,
      "Ġextreme": 2905,
      "Ġestim": 2906,
      "IN": 2907,
      "Ġcat": 2908,
      "Ġadded": 2909,
      "Ġincluded": 2910,
      "omb": 2911,
      "Ġconsist": 2912,
      "Ġhumans": 2913,
      "itation": 2914,
      "anced": 2915,
      "ĠAg": 2916,
      "ulated": 2917,
      "aling": 2918,
      "uls": 2919,
      "Ġcompet": 2920,
      "Ġcommunities": 2921,
      "Ġmiles": 2922,
      "Ġcitiz": 2923,
      "cohol": 2924,
      "Ġtalk": 2925,
      "cember": 2926,
      "ĠAc": 2927,
      "istics": 2928,
      "Ġnearly": 2929,
      "Ġsoftware": 2930,
      "oly": 2931,
      "Ġec": 2932,
      "ĠCong": 2933,
      "ads": 2934,
      "Ġlives": 2935,
      "imum": 2936,
      "ift": 2937,
      "Ġwebs": 2938,
      "Ġworkers": 2939,
      "Ġdy": 2940,
      "Ġhabit": 2941,
      "ided": 2942,
      "erson": 2943,
      "ondon": 2944,
      "Ġvari": 2945,
      "Ġmagn": 2946,
      "Ġast": 2947,
      "ĠVol": 2948,
      "aily": 2949,
      "Ġdefin": 2950,
      "Ġwent": 2951,
      "ama": 2952,
      "issions": 2953,
      "pper": 2954,
      "Ġsouth": 2955,
      "Ġsoil": 2956,
      "ovember": 2957,
      "Ġlaws": 2958,
      "Ġbroad": 2959,
      "Ġdescribed": 2960,
      "Ġtests": 2961,
      "Ġsafety": 2962,
      "Ġprep": 2963,
      "Ġelectric": 2964,
      "Ġforest": 2965,
      "Ġmethods": 2966,
      "ufact": 2967,
      "erg": 2968,
      "ille": 2969,
      "Ġcompared": 2970,
      "Ġregular": 2971,
      "Ġsafe": 2972,
      "Ġseems": 2973,
      "Ġpolicy": 2974,
      "Ġbacter": 2975,
      "ilos": 2976,
      "ĠApril": 2977,
      "ĠPre": 2978,
      "uman": 2979,
      "ĠChar": 2980,
      "omet": 2981,
      "Ġmedia": 2982,
      "ography": 2983,
      "Ġpositive": 2984,
      "Ġmusic": 2985,
      "22": 2986,
      "rates": 2987,
      "Ġgenetic": 2988,
      "Ġculture": 2989,
      "ham": 2990,
      "Ġfile": 2991,
      "Ġegg": 2992,
      "ĠMany": 2993,
      "Ġsolar": 2994,
      "ĠSept": 2995,
      "AN": 2996,
      "Ġlost": 2997,
      "ĠIS": 2998,
      "Ġquite": 2999,
      "Ġprimary": 3000,
      "ĠChe": 3001,
      "ĠRuss": 3002,
      "orders": 3003,
      "xic": 3004,
      "inical": 3005,
      "Ġbehind": 3006,
      "Ġadditional": 3007,
      "Ġdetermine": 3008,
      "Ġcheck": 3009,
      "rieved": 3010,
      "Ġwarm": 3011,
      "Ġappropri": 3012,
      "Ġlarger": 3013,
      "elling": 3014,
      "IT": 3015,
      "Ġmolec": 3016,
      "Ġlove": 3017,
      "lied": 3018,
      "arr": 3019,
      "Ġmicro": 3020,
      "ĠHistory": 3021,
      "ises": 3022,
      "Ġmid": 3023,
      "Ġdog": 3024,
      "Ġreflect": 3025,
      "wise": 3026,
      "lection": 3027,
      "Ġlack": 3028,
      "ĠIsrael": 3029,
      "Ġtur": 3030,
      "Ġmount": 3031,
      "Ġprec": 3032,
      "gypt": 3033,
      "Ġbeginning": 3034,
      "icated": 3035,
      "uth": 3036,
      "Ġcontains": 3037,
      "Ġimplement": 3038,
      "ĠChild": 3039,
      "60": 3040,
      "yond": 3041,
      "Ġpack": 3042,
      "Ġord": 3043,
      "And": 3044,
      "Ġwall": 3045,
      "Ġbr": 3046,
      "Ġnight": 3047,
      "Ġcontinued": 3048,
      "Ġlimited": 3049,
      "Ġreceived": 3050,
      "Ġbrought": 3051,
      "Ġtrade": 3052,
      "Ġstreng": 3053,
      "Ġattack": 3054,
      "Ġprint": 3055,
      "Ġsociety": 3056,
      "Ġgrowing": 3057,
      "pe": 3058,
      "Ġcross": 3059,
      "Ġshare": 3060,
      "Ġteachers": 3061,
      "aul": 3062,
      "Ġfram": 3063,
      "Ġmother": 3064,
      "ĠMost": 3065,
      "ĠEuropean": 3066,
      "Ġclean": 3067,
      "\",": 3068,
      "Ġunc": 3069,
      "Ġdecl": 3070,
      "Ġreading": 3071,
      "Ġperformance": 3072,
      "ĠSociety": 3073,
      "ĠGovern": 3074,
      "Ġ=": 3075,
      "Ġskills": 3076,
      "ĠOct": 3077,
      "ĠAugust": 3078,
      "He": 3079,
      "inate": 3080,
      "Ġshall": 3081,
      "Ġdirectly": 3082,
      "Ġapplication": 3083,
      "Ġsus": 3084,
      "ĠSch": 3085,
      "elt": 3086,
      "ologies": 3087,
      "Ġprotein": 3088,
      "Ġhyd": 3089,
      "Ġinstit": 3090,
      "Ġresponse": 3091,
      "Ġjo": 3092,
      "Ġnews": 3093,
      "nes": 3094,
      "ica": 3095,
      "term": 3096,
      "Ġencoura": 3097,
      "Ġbab": 3098,
      "irm": 3099,
      "istry": 3100,
      "Ġleaders": 3101,
      "Ġfamilies": 3102,
      "isions": 3103,
      "ĠWest": 3104,
      "Ġmonitor": 3105,
      "Ġdiseases": 3106,
      "Ġcourt": 3107,
      "24": 3108,
      "Ġfuel": 3109,
      "uries": 3110,
      "Ġsearch": 3111,
      "Ġdoing": 3112,
      "Ġsummer": 3113,
      "edia": 3114,
      "ĠBar": 3115,
      "Ġselect": 3116,
      "Ġsupply": 3117,
      "hetic": 3118,
      "ĠSm": 3119,
      "ĠGerman": 3120,
      "PA": 3121,
      "Ġhyp": 3122,
      "Ġhealthy": 3123,
      "Ġdraw": 3124,
      "Ġtree": 3125,
      "Ġsequ": 3126,
      "Ġcover": 3127,
      "Ġhimself": 3128,
      "Ġfav": 3129,
      "ĠAssoci": 3130,
      "Ġbul": 3131,
      "ription": 3132,
      "Ġpatient": 3133,
      "Ġmemory": 3134,
      "Ġvirus": 3135,
      "ĠJanuary": 3136,
      "ĠRetrieved": 3137,
      "Ġtakes": 3138,
      "Ġdrink": 3139,
      "oor": 3140,
      "ĠHer": 3141,
      "estic": 3142,
      "ension": 3143,
      "Ġdamage": 3144,
      "Ġwood": 3145,
      "itte": 3146,
      "yle": 3147,
      "Ġcust": 3148,
      "Ġmach": 3149,
      "illed": 3150,
      "Ġinside": 3151,
      "Ġideas": 3152,
      "rs": 3153,
      "osing": 3154,
      "ground": 3155,
      "Ġfru": 3156,
      "Ġhor": 3157,
      "ceed": 3158,
      "ems": 3159,
      "Ġevolution": 3160,
      "Ġlooking": 3161,
      "ĠEgypt": 3162,
      "Ġtransm": 3163,
      "Ġstarted": 3164,
      "Ġadop": 3165,
      "Ġpregn": 3166,
      "Ġidentify": 3167,
      "ext": 3168,
      "Ġcoast": 3169,
      "roy": 3170,
      "Ġ21": 3171,
      "Ġ2005": 3172,
      "ĠIndia": 3173,
      "Ġsites": 3174,
      "ev": 3175,
      "Ġsil": 3176,
      "Ġsleep": 3177,
      "ĠCoun": 3178,
      "Ġacid": 3179,
      "Ġlargest": 3180,
      "iles": 3181,
      "ĠMc": 3182,
      "ĠPark": 3183,
      "Ġimpl": 3184,
      "Ġeat": 3185,
      "Ġproced": 3186,
      "Ġseason": 3187,
      "Ġspeed": 3188,
      "Ġleading": 3189,
      "Ġatmosp": 3190,
      "ĠRec": 3191,
      "Ġmanufact": 3192,
      "Ġden": 3193,
      "set": 3194,
      "ĠLondon": 3195,
      "Ġdoesn": 3196,
      "Ġbenefits": 3197,
      "Ġreve": 3198,
      "ellow": 3199,
      "ounds": 3200,
      "Ġcorrect": 3201,
      "Ġprivate": 3202,
      "One": 3203,
      "Ġdead": 3204,
      "Ġrout": 3205,
      "Ġcompon": 3206,
      "Ġtiss": 3207,
      "Ġtransport": 3208,
      "Ġgetting": 3209,
      "IV": 3210,
      "Ġaud": 3211,
      "Ġbase": 3212,
      "ĠJournal": 3213,
      "ibrary": 3214,
      "Ġformer": 3215,
      "Ġkids": 3216,
      "Ġsoon": 3217,
      "Ġgene": 3218,
      "ĠDecember": 3219,
      "aid": 3220,
      "hel": 3221,
      "Ġder": 3222,
      "Ġeight": 3223,
      "Ġgoal": 3224,
      "Ġremain": 3225,
      "gar": 3226,
      "Ġ2000": 3227,
      "Ġemot": 3228,
      "Ġcompanies": 3229,
      "isl": 3230,
      "rogen": 3231,
      "ĠServ": 3232,
      "aces": 3233,
      "Ġminutes": 3234,
      "oke": 3235,
      "Ġep": 3236,
      "oles": 3237,
      "ĠAng": 3238,
      "Ġcenter": 3239,
      "Ġpoints": 3240,
      "uous": 3241,
      "oma": 3242,
      "Ġvill": 3243,
      "Ġeasy": 3244,
      "Ġpp": 3245,
      "odies": 3246,
      "Ġsevere": 3247,
      "Ġadminist": 3248,
      "ties": 3249,
      "Ġbal": 3250,
      "ari": 3251,
      "Ġ23": 3252,
      "ĠGl": 3253,
      "ĠAlthough": 3254,
      "Ġtend": 3255,
      "ider": 3256,
      "Ġforces": 3257,
      "Ġappe": 3258,
      "Ġagree": 3259,
      "ĠCanada": 3260,
      "IC": 3261,
      "enth": 3262,
      "Ġarri": 3263,
      "Ġ2006": 3264,
      "70": 3265,
      "used": 3266,
      "alled": 3267,
      "Ġ,": 3268,
      "Ġexcept": 3269,
      "Ġbirds": 3270,
      "Ġcard": 3271,
      "Ġcool": 3272,
      "ĠSee": 3273,
      "26": 3274,
      "40": 3275,
      "inct": 3276,
      "Ġquickly": 3277,
      "Ġbillion": 3278,
      "Ġbank": 3279,
      "Ġeval": 3280,
      "Ġinn": 3281,
      "ĠOther": 3282,
      "Ġdecre": 3283,
      "ĠSeptember": 3284,
      "den": 3285,
      "oe": 3286,
      "Ġi": 3287,
      "asons": 3288,
      "ĠInter": 3289,
      "Ġrecently": 3290,
      "iques": 3291,
      "lier": 3292,
      "uments": 3293,
      "Ġsal": 3294,
      "Ġlength": 3295,
      "ĠMon": 3296,
      "ĠUN": 3297,
      "Ġbasis": 3298,
      "Ġdispl": 3299,
      "Ġtarget": 3300,
      "23": 3301,
      "cop": 3302,
      "atur": 3303,
      "Ġbit": 3304,
      "room": 3305,
      "Ġgot": 3306,
      "rag": 3307,
      "ĠFeb": 3308,
      "ĠAmericans": 3309,
      "Ġdemand": 3310,
      "At": 3311,
      "Ġcarry": 3312,
      "Ġobjects": 3313,
      "Ġwrite": 3314,
      "water": 3315,
      "Ġlines": 3316,
      "Ġones": 3317,
      "ĠInc": 3318,
      "Ġprotection": 3319,
      "Ġgame": 3320,
      "Ġuser": 3321,
      "Ġefforts": 3322,
      "29": 3323,
      "Ġice": 3324,
      "itch": 3325,
      "nown": 3326,
      "edom": 3327,
      "ĠNovember": 3328,
      "Ġdang": 3329,
      "Ġdark": 3330,
      "ĠDNA": 3331,
      "ridge": 3332,
      "Ġdied": 3333,
      "Ġwaste": 3334,
      "Ġnuclear": 3335,
      "ĠDavid": 3336,
      "Ġborn": 3337,
      "ĠTw": 3338,
      "odes": 3339,
      "Ġ2013": 3340,
      "ls": 3341,
      "arian": 3342,
      "Ġhot": 3343,
      "sect": 3344,
      "Ġsecurity": 3345,
      "Ġdepend": 3346,
      "Ġhands": 3347,
      "Ġanswer": 3348,
      "Ġsustain": 3349,
      "sec": 3350,
      "Ġancient": 3351,
      "Ġlocated": 3352,
      "Ġlegal": 3353,
      "craft": 3354,
      "rote": 3355,
      "ocr": 3356,
      "Ġpresident": 3357,
      "rance": 3358,
      "ĠDo": 3359,
      "apter": 3360,
      "iology": 3361,
      "vest": 3362,
      "Ġtold": 3363,
      "Ġrare": 3364,
      "Ġextra": 3365,
      "Ġrequires": 3366,
      "Ġestablish": 3367,
      "ittee": 3368,
      "izations": 3369,
      "hens": 3370,
      "itting": 3371,
      "Ġeasily": 3372,
      "Ġdrugs": 3373,
      "Ġpen": 3374,
      "Ġfoot": 3375,
      "Ġlif": 3376,
      "Ġplaces": 3377,
      "Ġsexual": 3378,
      "Ġbott": 3379,
      "Ġnamed": 3380,
      "ĠLaw": 3381,
      "Ġelse": 3382,
      "Ġvideo": 3383,
      "Ġmal": 3384,
      "ologist": 3385,
      "Ġrapid": 3386,
      "ĠDevelop": 3387,
      "ĠSystem": 3388,
      "Ġfight": 3389,
      "Ġdifference": 3390,
      "ĠAfrica": 3391,
      "Ġchalleng": 3392,
      "Ġharm": 3393,
      "Ġstra": 3394,
      "ĠGreen": 3395,
      "ĠJews": 3396,
      "ĠWilliam": 3397,
      "ĠEducation": 3398,
      "Ġcou": 3399,
      "Ġdaily": 3400,
      "Ġinfection": 3401,
      "Ġgenes": 3402,
      "Ġsurround": 3403,
      "Ġplanet": 3404,
      "Ġeconomy": 3405,
      "ĠCouncil": 3406,
      "Ġstress": 3407,
      "gery": 3408,
      "abetes": 3409,
      "Ġeth": 3410,
      "ĠUs": 3411,
      "Ġprior": 3412,
      "Ġessential": 3413,
      "II": 3414,
      "Ġten": 3415,
      "ĠCity": 3416,
      "ĠOb": 3417,
      "ĠSocial": 3418,
      "Ġeye": 3419,
      "Ġinfluence": 3420,
      "Ġspeak": 3421,
      "oming": 3422,
      "verse": 3423,
      "Ġvict": 3424,
      "astic": 3425,
      "Ġremains": 3426,
      "ĠIslam": 3427,
      "ĠEnvironment": 3428,
      "Ġcitizens": 3429,
      "27": 3430,
      "AL": 3431,
      "Ġtrib": 3432,
      "enty": 3433,
      "ĠEast": 3434,
      "Ġrule": 3435,
      "ĠTechn": 3436,
      "cks": 3437,
      "Ġsold": 3438,
      "Ġban": 3439,
      "Ġhar": 3440,
      "Ġnames": 3441,
      "Ġ2004": 3442,
      "ĠEngland": 3443,
      "Ġapplications": 3444,
      "ony": 3445,
      "aint": 3446,
      "Ġtransl": 3447,
      "Ġmultiple": 3448,
      "RE": 3449,
      "Ġcorn": 3450,
      "Ġbeyond": 3451,
      "Ġ60": 3452,
      "ospital": 3453,
      "Ġtools": 3454,
      "ĠCounty": 3455,
      "By": 3456,
      "ĠJes": 3457,
      "Ġsomeone": 3458,
      "Ġobt": 3459,
      "Ġdecision": 3460,
      "Ġgradu": 3461,
      "ĠArt": 3462,
      "Ġnegative": 3463,
      "idents": 3464,
      "bit": 3465,
      "orks": 3466,
      "Ġdevice": 3467,
      "Ġproperty": 3468,
      "Ġimages": 3469,
      "Ġexposure": 3470,
      "Ġprogress": 3471,
      "Ġanti": 3472,
      "Ġappropriate": 3473,
      "DA": 3474,
      "Ġfather": 3475,
      "Ġmom": 3476,
      "Ġspirit": 3477,
      "Ġallows": 3478,
      "Ġasked": 3479,
      "ĠMuslim": 3480,
      "book": 3481,
      "iny": 3482,
      "aly": 3483,
      "Ġund": 3484,
      "Ġstru": 3485,
      "Ġweb": 3486,
      "Ġdestroy": 3487,
      "Ġwebsite": 3488,
      "Ġaware": 3489,
      "Ġinvestig": 3490,
      "Ġmiddle": 3491,
      "Ġalcohol": 3492,
      "Ġaccur": 3493,
      "Ġveget": 3494,
      "Ġachieve": 3495,
      "yth": 3496,
      "Ġwaters": 3497,
      "ĠPol": 3498,
      "resh": 3499,
      "ĠNot": 3500,
      "Ġ190": 3501,
      "Ġsaw": 3502,
      "Ġrock": 3503,
      "Ġhighly": 3504,
      "Ġoccurs": 3505,
      "Ġtraditional": 3506,
      "Ġbad": 3507,
      "iency": 3508,
      "Ġcurrently": 3509,
      "Ġtit": 3510,
      "Ġcommerc": 3511,
      "reek": 3512,
      "ĠProgram": 3513,
      "Ġoffer": 3514,
      "ĠFirst": 3515,
      "lin": 3516,
      "mar": 3517,
      "Ġalt": 3518,
      "Ġvot": 3519,
      "Ġmut": 3520,
      "Ġgard": 3521,
      "ĠCour": 3522,
      "ields": 3523,
      "ancial": 3524,
      "Ġwa": 3525,
      "ils": 3526,
      "Ġunique": 3527,
      "Ġelements": 3528,
      "Ġreligious": 3529,
      "Ġsn": 3530,
      "Ġhy": 3531,
      "Ġaspect": 3532,
      "Ġrates": 3533,
      "ĠChurch": 3534,
      "Ġstrateg": 3535,
      "____": 3536,
      "come": 3537,
      "Ġdry": 3538,
      "Ġbeg": 3539,
      "ĠAv": 3540,
      "ĠRed": 3541,
      "Ġformed": 3542,
      "Ġdevices": 3543,
      "Ġcopy": 3544,
      "So": 3545,
      "king": 3546,
      "ander": 3547,
      "Ġ195": 3548,
      "Ġlocation": 3549,
      "Ġfigure": 3550,
      "Ġcred": 3551,
      "Ġmission": 3552,
      "ida": 3553,
      "Ġult": 3554,
      "ĠEl": 3555,
      "leb": 3556,
      "Ġhon": 3557,
      "Ġang": 3558,
      "ĠOf": 3559,
      "ruary": 3560,
      "ought": 3561,
      "Ġuseful": 3562,
      "Ġdiscovered": 3563,
      "Ġfoods": 3564,
      "Ġplaced": 3565,
      "Ġcollection": 3566,
      "ilosoph": 3567,
      "ey": 3568,
      "time": 3569,
      "year": 3570,
      "Ġcode": 3571,
      "aria": 3572,
      "oud": 3573,
      "These": 3574,
      "Ġadj": 3575,
      "Ġpeace": 3576,
      "Ġagricult": 3577,
      "Ġcold": 3578,
      "Ġanything": 3579,
      "airs": 3580,
      "Ġsuccessful": 3581,
      "hest": 3582,
      "rest": 3583,
      "entially": 3584,
      "imal": 3585,
      "ĠCur": 3586,
      "ĠWater": 3587,
      "bl": 3588,
      "Ġaim": 3589,
      "rab": 3590,
      "Ġweeks": 3591,
      "Ġcritical": 3592,
      "wide": 3593,
      "Ġgave": 3594,
      "resp": 3595,
      "iber": 3596,
      "Ġpopulations": 3597,
      "Ġwinter": 3598,
      "inated": 3599,
      "aled": 3600,
      "Ġperhaps": 3601,
      "Ġhelps": 3602,
      "Ġshowed": 3603,
      "Ġriver": 3604,
      "Ġtherapy": 3605,
      "ĠSun": 3606,
      "ĠFrom": 3607,
      "ype": 3608,
      "Pro": 3609,
      "ico": 3610,
      ".|": 3611,
      "Ġwrote": 3612,
      "Ġfinal": 3613,
      "ĠHouse": 3614,
      "33": 3615,
      "rief": 3616,
      "cious": 3617,
      "ĠReg": 3618,
      "Ġcosts": 3619,
      "ban": 3620,
      "ĠRoman": 3621,
      "ĠVir": 3622,
      "ĠArch": 3623,
      "Ġcapac": 3624,
      "Ġillust": 3625,
      "Ġexercise": 3626,
      "ĠDis": 3627,
      "ĠDay": 3628,
      "Ġnothing": 3629,
      "Ġcontribut": 3630,
      "Ġfollowed": 3631,
      "iar": 3632,
      "Ġtum": 3633,
      "reet": 3634,
      "ingu": 3635,
      "Ġreach": 3636,
      "Ġalone": 3637,
      "ests": 3638,
      "Ġ22": 3639,
      "iverse": 3640,
      "ken": 3641,
      "omy": 3642,
      "Ġphysic": 3643,
      "Ġresponsible": 3644,
      "can": 3645,
      "iat": 3646,
      "oring": 3647,
      "Ġcoming": 3648,
      "Ġtrees": 3649,
      "Ġurl": 3650,
      "EN": 3651,
      "iot": 3652,
      "ĠSur": 3653,
      "Ġscreen": 3654,
      "With": 3655,
      "cles": 3656,
      "iers": 3657,
      "Ġson": 3658,
      "Ġdate": 3659,
      "Ġgives": 3660,
      "ĠGreat": 3661,
      "Ġcommunication": 3662,
      "Ġtechniques": 3663,
      "oday": 3664,
      "Ġconstruction": 3665,
      "ĠAssociation": 3666,
      "fect": 3667,
      "Ġwalk": 3668,
      "Ġexpected": 3669,
      "Ġaffected": 3670,
      "Ġprinc": 3671,
      ".;": 3672,
      "ky": 3673,
      "Ġmember": 3674,
      "Ġthinking": 3675,
      "ĠSince": 3676,
      "ĠPat": 3677,
      "irection": 3678,
      "Ġ2001": 3679,
      "Ġexpand": 3680,
      "Ġoccup": 3681,
      "ĠGeneral": 3682,
      "ĠCD": 3683,
      "ĠMor": 3684,
      "Ġadults": 3685,
      "Ġensure": 3686,
      "ees": 3687,
      "equ": 3688,
      "head": 3689,
      "ĠInternet": 3690,
      "Ġ2003": 3691,
      "Ġallowed": 3692,
      "Ġsituation": 3693,
      "Ġmis": 3694,
      "Ġexact": 3695,
      "iece": 3696,
      "ĠYour": 3697,
      "Ġacqu": 3698,
      "Ġfeed": 3699,
      "ĠProf": 3700,
      "ĠSim": 3701,
      "ĠOctober": 3702,
      "OS": 3703,
      "new": 3704,
      "ession": 3705,
      "ĠDuring": 3706,
      "Ġquant": 3707,
      "ĠUnion": 3708,
      "ĠPhil": 3709,
      "Ġeffort": 3710,
      "pire": 3711,
      "su": 3712,
      "Ġwon": 3713,
      "Ġmention": 3714,
      "ĠGermany": 3715,
      "ED": 3716,
      "rane": 3717,
      "Ġsmaller": 3718,
      "Ġcompletely": 3719,
      "28": 3720,
      "Ġsem": 3721,
      "Ġvalues": 3722,
      "Ġdetermined": 3723,
      "Ġappears": 3724,
      "Ġbenefit": 3725,
      "35": 3726,
      "ford": 3727,
      "joy": 3728,
      "Ġtoxic": 3729,
      "Ġearlier": 3730,
      "Ġreports": 3731,
      "more": 3732,
      "Ġstar": 3733,
      "Ġadm": 3734,
      "Ġdistance": 3735,
      "rees": 3736,
      "Ġfair": 3737,
      "ĠMich": 3738,
      "aced": 3739,
      "Ġusers": 3740,
      "Ġbecomes": 3741,
      "ĠConf": 3742,
      "Ġpet": 3743,
      "icate": 3744,
      "Ġ28": 3745,
      "Ġcontroll": 3746,
      "aur": 3747,
      "bur": 3748,
      "lant": 3749,
      "ĠSan": 3750,
      "Â°": 3751,
      "Ġapplied": 3752,
      "Ġtechnologies": 3753,
      "Ġfunctions": 3754,
      "ĠCommun": 3755,
      "Ġseparate": 3756,
      "Americ": 3757,
      "âĢ¢": 3758,
      "Ġrepe": 3759,
      "Ġreceive": 3760,
      "itis": 3761,
      "ipment": 3762,
      "Ġassign": 3763,
      "Ġwoman": 3764,
      "Ġneigh": 3765,
      "Ġfeatures": 3766,
      "Ġimportance": 3767,
      "hemat": 3768,
      "Ġtesting": 3769,
      "Ġcalc": 3770,
      "ml": 3771,
      "ĠMod": 3772,
      "ĠHigh": 3773,
      "Ġimag": 3774,
      "Ġcoord": 3775,
      "Ġautom": 3776,
      "Ġvirt": 3777,
      "US": 3778,
      "known": 3779,
      "ximately": 3780,
      "ĠThus": 3781,
      "Ġeyes": 3782,
      "vant": 3783,
      "Ġtable": 3784,
      "itz": 3785,
      "itect": 3786,
      "Ġfear": 3787,
      "Ġhope": 3788,
      "Ġrules": 3789,
      "Ġblock": 3790,
      "Ġmodels": 3791,
      "inese": 3792,
      "Ġorganization": 3793,
      "Ġstandards": 3794,
      "Ġconstruct": 3795,
      "orge": 3796,
      "olar": 3797,
      "Ġ26": 3798,
      "Ġbelieved": 3799,
      "Ġprojects": 3800,
      "unte": 3801,
      "Ġversion": 3802,
      "Ġvitamin": 3803,
      "oo": 3804,
      "Ġpow": 3805,
      "idel": 3806,
      "ĠAre": 3807,
      "ĠSw": 3808,
      "ĠCom": 3809,
      "ocol": 3810,
      "Ġjournal": 3811,
      "Ġoffice": 3812,
      "ĠWeb": 3813,
      "Ġelectr": 3814,
      "Ġrecords": 3815,
      "'ve": 3816,
      "lege": 3817,
      "ctors": 3818,
      "Ġupper": 3819,
      "Ġexpect": 3820,
      "Ġinteresting": 3821,
      "Ġhistorical": 3822,
      "Ġpurpose": 3823,
      "Un": 3824,
      "Ġmax": 3825,
      "amer": 3826,
      "rome": 3827,
      "pped": 3828,
      "Ġweather": 3829,
      "izes": 3830,
      "Ġlimit": 3831,
      "EC": 3832,
      "ha": 3833,
      "ĠAccording": 3834,
      "ĠMex": 3835,
      "Ġball": 3836,
      "Ġmig": 3837,
      "Ġdefined": 3838,
      "Ġlegisl": 3839,
      "Ġtowards": 3840,
      "Ġmaintain": 3841,
      "mat": 3842,
      "Ġdivid": 3843,
      "Ġexec": 3844,
      "Ġmajority": 3845,
      "rupt": 3846,
      "Ġbacteria": 3847,
      "Ġsch": 3848,
      "ula": 3849,
      "ĠBecause": 3850,
      "Ġtrad": 3851,
      "Ġdegree": 3852,
      "ĠTrans": 3853,
      "Ġmel": 3854,
      "Ġhous": 3855,
      "Ġleave": 3856,
      "ĠJames": 3857,
      "Ġtele": 3858,
      "Ġrespond": 3859,
      "Ġproviding": 3860,
      "Ġreleased": 3861,
      "ĠCongress": 3862,
      "Ġbodies": 3863,
      "Ġmiss": 3864,
      "ĠRef": 3865,
      "Ġseven": 3866,
      "Ġ2002": 3867,
      "lick": 3868,
      "ĠSpec": 3869,
      "Ġolder": 3870,
      "bre": 3871,
      "Ġfast": 3872,
      "ocks": 3873,
      "wards": 3874,
      "Ġexperim": 3875,
      "Ġbelief": 3876,
      "Ġradio": 3877,
      "aught": 3878,
      "ĠJesus": 3879,
      "off": 3880,
      "rations": 3881,
      "itable": 3882,
      "ara": 3883,
      "ĠMal": 3884,
      "phas": 3885,
      "Ġreduced": 3886,
      "Ġidentified": 3887,
      "78": 3888,
      "ĠNow": 3889,
      "Ġcompar": 3890,
      "Ġworked": 3891,
      "Ġdrive": 3892,
      "Ġfully": 3893,
      "ios": 3894,
      "ste": 3895,
      "Ġdeal": 3896,
      "Ġves": 3897,
      "udd": 3898,
      "ĠUse": 3899,
      "ĠRepublic": 3900,
      "men": 3901,
      "Ġvacc": 3902,
      "Ġ186": 3903,
      "Ġreference": 3904,
      "Ġprocesses": 3905,
      "ĠCommission": 3906,
      "Ġiniti": 3907,
      "Ġthousands": 3908,
      "Ġcustom": 3909,
      "Ġcra": 3910,
      "ĠNet": 3911,
      "ixed": 3912,
      "Ġchanged": 3913,
      "Ġfinancial": 3914,
      "90": 3915,
      "Ġconsequ": 3916,
      "ria": 3917,
      "Ġbreast": 3918,
      "Ġlayer": 3919,
      "ĠFebruary": 3920,
      "asion": 3921,
      "Ġocean": 3922,
      "Ġcrop": 3923,
      "Ġstay": 3924,
      "ĠMy": 3925,
      "ĠNAS": 3926,
      "ĠProt": 3927,
      "Ġadvant": 3928,
      "Ġanaly": 3929,
      "Ġcommercial": 3930,
      "Some": 3931,
      "atin": 3932,
      "Ġbreat": 3933,
      "Ġstream": 3934,
      "ĠEven": 3935,
      "Ġrain": 3936,
      "ĠRev": 3937,
      "Ġdidn": 3938,
      "Ġpassed": 3939,
      "Ġpredict": 3940,
      "rig": 3941,
      "rition": 3942,
      "Ġbound": 3943,
      "Ġreasons": 3944,
      "Ġbeaut": 3945,
      "ĠWestern": 3946,
      "Ġregions": 3947,
      "Ġprin": 3948,
      "Ġpractices": 3949,
      "load": 3950,
      "Ġsteps": 3951,
      "ĠAustralia": 3952,
      "aign": 3953,
      "Ġrob": 3954,
      "Ġtrying": 3955,
      "HE": 3956,
      "co": 3957,
      "Ġsect": 3958,
      "ĠFound": 3959,
      "Ġadapt": 3960,
      "Ġveh": 3961,
      "ographic": 3962,
      "Ġcultural": 3963,
      "38": 3964,
      "ĠHen": 3965,
      "Ġdisorders": 3966,
      "Ġaid": 3967,
      "oration": 3968,
      "ĠBra": 3969,
      "Ġdiabetes": 3970,
      "back": 3971,
      "ygen": 3972,
      "ĠRob": 3973,
      "Ġparty": 3974,
      "Ġmedicine": 3975,
      "Ġcommonly": 3976,
      "Ġrunning": 3977,
      "Ph": 3978,
      "Ġwhom": 3979,
      "Ġ27": 3980,
      "Ġconservation": 3981,
      "Ġsymb": 3982,
      "Ġceleb": 3983,
      "Ex": 3984,
      "orage": 3985,
      "Ġlat": 3986,
      "Ġgoes": 3987,
      "Ġdirection": 3988,
      "ĠMuseum": 3989,
      "abilities": 3990,
      "ĠHere": 3991,
      "que": 3992,
      "ĠChinese": 3993,
      "Ġprison": 3994,
      "Ġforeign": 3995,
      "Ġturned": 3996,
      "Ġmoving": 3997,
      "Ġstatus": 3998,
      "Ġstrength": 3999,
      "AC": 4000,
      "Ġ...": 4001,
      "Ġlived": 4002,
      "Ġtransfer": 4003,
      "Ġfactor": 4004,
      "Ġeverything": 4005,
      "Ġconflic": 4006,
      "semb": 4007,
      "oted": 4008,
      "Ġacadem": 4009,
      "Ġassist": 4010,
      "Ġnumerous": 4011,
      "ĠAlso": 4012,
      "eech": 4013,
      "Ġstructures": 4014,
      "Ġexisting": 4015,
      "uff": 4016,
      "encies": 4017,
      "icip": 4018,
      "Ġenjoy": 4019,
      "cial": 4020,
      "iable": 4021,
      "Ġyouth": 4022,
      "ords": 4023,
      "Ġfindings": 4024,
      "ĠMedicine": 4025,
      "36": 4026,
      "Ġmer": 4027,
      "Ġtrial": 4028,
      "Ġfriends": 4029,
      "Ġtrack": 4030,
      "Ġcities": 4031,
      "Ġteaching": 4032,
      "Ġsurvey": 4033,
      "Ġsolution": 4034,
      "Ġmeasures": 4035,
      "Ġchoice": 4036,
      "Ġdoub": 4037,
      "AM": 4038,
      "Ar": 4039,
      "och": 4040,
      "Ġphen": 4041,
      "Ġinsect": 4042,
      "erved": 4043,
      "Ġattract": 4044,
      "Ġequipment": 4045,
      "ĠCollege": 4046,
      "ĠMill": 4047,
      "They": 4048,
      "Ġunivers": 4049,
      "Ġexpress": 4050,
      "Ġdecades": 4051,
      "porary": 4052,
      "ĠNASA": 4053,
      "za": 4054,
      "Ġ:": 4055,
      "rehens": 4056,
      "Ġpan": 4057,
      "Ġconver": 4058,
      "ĠHuman": 4059,
      "ĠFlor": 4060,
      "Ġroad": 4061,
      "ĠPeople": 4062,
      "ĠCourt": 4063,
      "pris": 4064,
      "Ġpric": 4065,
      "Ġmob": 4066,
      "ĠTex": 4067,
      "Ġ29": 4068,
      "Ġrise": 4069,
      "Ġoffers": 4070,
      "Ġgrant": 4071,
      "ias": 4072,
      "enge": 4073,
      "Ġmo": 4074,
      "Ġrich": 4075,
      "ĠViet": 4076,
      "Ġsurgery": 4077,
      "Ġtypically": 4078,
      "Ġindustrial": 4079,
      "force": 4080,
      "ĠGovernment": 4081,
      "isher": 4082,
      "Ġlung": 4083,
      "ĠTheir": 4084,
      "ciples": 4085,
      "Ġpresence": 4086,
      "198": 4087,
      "Ġenter": 4088,
      "Ġsuggests": 4089,
      "Ġeventually": 4090,
      "Ġfaith": 4091,
      "ald": 4092,
      "Ġlic": 4093,
      "Ġinstru": 4094,
      "ĠRead": 4095,
      "Ġteacher": 4096,
      "Ġrelatively": 4097,
      "Ġimmediately": 4098,
      "Ġbaby": 4099,
      "house": 4100,
      "Ġcry": 4101,
      "ĠThen": 4102,
      "ensus": 4103,
      "Ġpoly": 4104,
      "Ġstaff": 4105,
      "ĠMiss": 4106,
      "ĠPaul": 4107,
      "Ġclinical": 4108,
      "Ġequal": 4109,
      "Ġobserved": 4110,
      "Ġalternative": 4111,
      "ÃŃ": 4112,
      "Ġwid": 4113,
      "Ġfoss": 4114,
      "ulf": 4115,
      "ĠPublic": 4116,
      "ĠDirect": 4117,
      "Ġplans": 4118,
      "ibly": 4119,
      "Ġconstant": 4120,
      "ĠPlan": 4121,
      "Ġillness": 4122,
      "Ġestimated": 4123,
      "ĠDevelopment": 4124,
      "32": 4125,
      "Ġpiece": 4126,
      "ĠSer": 4127,
      "Ġvia": 4128,
      "ĠFl": 4129,
      "Ġenh": 4130,
      "orms": 4131,
      "Ġincreases": 4132,
      "Ġroom": 4133,
      "Ġslight": 4134,
      "Ġrelease": 4135,
      "Ġpicture": 4136,
      "ht": 4137,
      "ĠJust": 4138,
      "Ġpersons": 4139,
      "Ġtreated": 4140,
      "Ġliterature": 4141,
      "win": 4142,
      "Ġwond": 4143,
      "Ġhom": 4144,
      "ĠSam": 4145,
      "ĠMet": 4146,
      "Ġarmy": 4147,
      "Ġscale": 4148,
      "Ġsigns": 4149,
      "Ġpowerful": 4150,
      "Ġtissue": 4151,
      "fort": 4152,
      "iant": 4153,
      "name": 4154,
      "Ġisn": 4155,
      "Ġorganizations": 4156,
      "Ġcreating": 4157,
      "Ġnorthern": 4158,
      "ĠKen": 4159,
      "Ġrot": 4160,
      "Ġexamples": 4161,
      "ying": 4162,
      "Ġcook": 4163,
      "ocal": 4164,
      "Ġspring": 4165,
      "Ġeveryone": 4166,
      "Ġmental": 4167,
      "ĠMary": 4168,
      "ĠMount": 4169,
      "rian": 4170,
      "Ġcontrast": 4171,
      "Ġfreedom": 4172,
      "isp": 4173,
      "Ġfresh": 4174,
      "Ġefficient": 4175,
      "ĠPal": 4176,
      "ortion": 4177,
      "ellig": 4178,
      "Ġkid": 4179,
      "apers": 4180,
      "Ġmeat": 4181,
      "Ġreprodu": 4182,
      "clus": 4183,
      "ĠBlack": 4184,
      "45": 4185,
      "ota": 4186,
      "Ġvent": 4187,
      "ĠRich": 4188,
      "ĠRober": 4189,
      "Ġshape": 4190,
      "Ġsynt": 4191,
      "related": 4192,
      "hors": 4193,
      "Ġsac": 4194,
      "Ġswe": 4195,
      "ĠBro": 4196,
      "riage": 4197,
      "Ġinstance": 4198,
      "Ġoperations": 4199,
      "ĠBritain": 4200,
      "Ġchemicals": 4201,
      "ĠAut": 4202,
      "Ġnoted": 4203,
      "Ġpurch": 4204,
      "Ġfemale": 4205,
      "Ġtub": 4206,
      "erior": 4207,
      "Ġhuge": 4208,
      "ĠMass": 4209,
      "ĠRo": 4210,
      "ogen": 4211,
      "ĠOff": 4212,
      "Ġhighest": 4213,
      "RI": 4214,
      "cast": 4215,
      "orpor": 4216,
      "Ġlib": 4217,
      "ifically": 4218,
      "ĠEach": 4219,
      "While": 4220,
      "Ġinterpret": 4221,
      "Ġcateg": 4222,
      "Ġchance": 4223,
      "Ġqual": 4224,
      "Ġdifferences": 4225,
      "Ġclearly": 4226,
      "Ġmoment": 4227,
      "All": 4228,
      "Ġbran": 4229,
      "igure": 4230,
      "Ġjoint": 4231,
      "respond": 4232,
      "Ġnor": 4233,
      "ĠPort": 4234,
      "ĠOur": 4235,
      "ĠAsia": 4236,
      "Ġinstruct": 4237,
      "Ġcapacity": 4238,
      "39": 4239,
      "Ġwatch": 4240,
      "ola": 4241,
      "ĠMag": 4242,
      "oper": 4243,
      "Ġenem": 4244,
      "Ġrecommend": 4245,
      "Ġopportunity": 4246,
      "ET": 4247,
      "Ġpul": 4248,
      "ctic": 4249,
      "Ġexhib": 4250,
      "Ġprice": 4251,
      "Ġdistribution": 4252,
      "Ġeducational": 4253,
      "part": 4254,
      "Ġ+": 4255,
      "Ġ1999": 4256,
      "Ġproperties": 4257,
      "Ġelectricity": 4258,
      "'ll": 4259,
      "Ġtou": 4260,
      "ett": 4261,
      "ĠMi": 4262,
      "iful": 4263,
      "acific": 4264,
      "Ġrang": 4265,
      "Ġconducted": 4266,
      "Ġheavy": 4267,
      "BN": 4268,
      "cont": 4269,
      "Ġsed": 4270,
      "level": 4271,
      "ĠRel": 4272,
      "ĠFrance": 4273,
      "unction": 4274,
      "Ġblue": 4275,
      "ĠWhite": 4276,
      "Ġbelong": 4277,
      "Ġprofessional": 4278,
      "Ġkilled": 4279,
      "Ġindependent": 4280,
      "Ġfruit": 4281,
      "Ġatmosphere": 4282,
      "Ġbra": 4283,
      "Ġgold": 4284,
      "ament": 4285,
      "Ġconv": 4286,
      "eces": 4287,
      "Ġnovel": 4288,
      "Ġapproximately": 4289,
      "Ġsitu": 4290,
      "Ġoxygen": 4291,
      "Ġfavor": 4292,
      "Ġgir": 4293,
      "ĠMars": 4294,
      "Ġemissions": 4295,
      "oyal": 4296,
      "Ġlearned": 4297,
      "Ġconnect": 4298,
      "ĠChildren": 4299,
      "Ġevalu": 4300,
      "Ġcru": 4301,
      "Ġwear": 4302,
      "ado": 4303,
      "ĠMic": 4304,
      "Ġchurch": 4305,
      "ĠLord": 4306,
      "Ġemphas": 4307,
      "Ġbox": 4308,
      "Ġload": 4309,
      "Ġmoved": 4310,
      "Ġchoose": 4311,
      "Ġpatterns": 4312,
      "yro": 4313,
      "Ġinfl": 4314,
      "iox": 4315,
      ".||": 4316,
      "Ad": 4317,
      "After": 4318,
      "rog": 4319,
      "omas": 4320,
      "Ġgiving": 4321,
      "ĠLou": 4322,
      "Ġworth": 4323,
      "ously": 4324,
      "ĠIts": 4325,
      "Ġactions": 4326,
      "ĠNews": 4327,
      "spec": 4328,
      "gress": 4329,
      "Ġhearing": 4330,
      "ĠMedical": 4331,
      "Ġopportunities": 4332,
      "From": 4333,
      "ped": 4334,
      "atab": 4335,
      "Ġwest": 4336,
      "Ġmap": 4337,
      "Ġforward": 4338,
      "ĠMart": 4339,
      "Ġquar": 4340,
      "ĠSpace": 4341,
      "Ġopin": 4342,
      "Ġinterested": 4343,
      "Ġannual": 4344,
      "Ġtim": 4345,
      "ona": 4346,
      "Ġpal": 4347,
      "Ġgod": 4348,
      "Ġstorage": 4349,
      "esthetic": 4350,
      "Ġweak": 4351,
      "Ġarchitect": 4352,
      "itors": 4353,
      "Ġhair": 4354,
      "Ġpartners": 4355,
      "Ġcarried": 4356,
      "Ġwrong": 4357,
      "Ġign": 4358,
      "ndrome": 4359,
      "Ġarr": 4360,
      "Ġtruth": 4361,
      "Ġreaction": 4362,
      "ault": 4363,
      "iding": 4364,
      "ĠUnder": 4365,
      "Ġserver": 4366,
      "unting": 4367,
      "Ġremoved": 4368,
      "Ġvessel": 4369,
      "roc": 4370,
      "Ġrul": 4371,
      "Ġcombination": 4372,
      "Ġstrugg": 4373,
      "pir": 4374,
      "essor": 4375,
      "Ġvary": 4376,
      "Ġchief": 4377,
      "ologists": 4378,
      "ribute": 4379,
      "Ġtro": 4380,
      "Ġreb": 4381,
      "ĠTest": 4382,
      "char": 4383,
      "Ġstage": 4384,
      "aste": 4385,
      "Ġsyn": 4386,
      "Ġactual": 4387,
      "Ġflood": 4388,
      "Ġdistinct": 4389,
      "ĠIsland": 4390,
      "Ġconnection": 4391,
      "Ġeating": 4392,
      "ĠDem": 4393,
      "ĠEv": 4394,
      "ĠInst": 4395,
      "ĠProject": 4396,
      "Ġgeneration": 4397,
      "Ġwidely": 4398,
      "See": 4399,
      "iance": 4400,
      "Ġvote": 4401,
      "Ġresource": 4402,
      "Ġproposed": 4403,
      "Ġfilm": 4404,
      "Ġintroduced": 4405,
      "Ġofficials": 4406,
      "American": 4407,
      "ĠTexas": 4408,
      "uz": 4409,
      "raction": 4410,
      "ĠCath": 4411,
      "ĠCivil": 4412,
      "ample": 4413,
      "Ġunf": 4414,
      "ĠCommon": 4415,
      "ĠAcadem": 4416,
      "ĠService": 4417,
      "Ġmeeting": 4418,
      "Ġdisplay": 4419,
      "Ġreached": 4420,
      "Ġlinks": 4421,
      "key": 4422,
      "Ġspect": 4423,
      "Ġship": 4424,
      "Ġcontext": 4425,
      "Ġassum": 4426,
      "Ġ185": 4427,
      "ĠPhys": 4428,
      "Ġmessage": 4429,
      "bed": 4430,
      "anish": 4431,
      "Ġdro": 4432,
      "Ġdim": 4433,
      "ĠCO": 4434,
      "Ġunit": 4435,
      "Ġphilosoph": 4436,
      "icking": 4437,
      "Ġvisual": 4438,
      "Ġmuscle": 4439,
      "ĠValley": 4440,
      "awn": 4441,
      "Ġcand": 4442,
      "Ġbone": 4443,
      "ĠIran": 4444,
      "Ġcontract": 4445,
      "Ġexposed": 4446,
      "Ġminor": 4447,
      "Ġradiation": 4448,
      "Ġprofessor": 4449,
      "Ġcampaign": 4450,
      "Ġsouthern": 4451,
      "Ġboard": 4452,
      "Ġcorrespond": 4453,
      "ij": 4454,
      "Ġsand": 4455,
      "Ġnative": 4456,
      "ĠSen": 4457,
      "uses": 4458,
      "Ġoverall": 4459,
      "Ġsort": 4460,
      "orial": 4461,
      "Ġpages": 4462,
      "cipl": 4463,
      "Ġ1990": 4464,
      "Ġinnov": 4465,
      "ystem": 4466,
      "uted": 4467,
      "Ġ189": 4468,
      "New": 4469,
      "well": 4470,
      "urt": 4471,
      "ĠDec": 4472,
      "clop": 4473,
      "Ġtemperatures": 4474,
      "Ġconclud": 4475,
      "Ġesc": 4476,
      "Ġpi": 4477,
      "ellect": 4478,
      "ĠHIV": 4479,
      "ĠFin": 4480,
      "Ġresistance": 4481,
      "Ġrace": 4482,
      "Ġmemb": 4483,
      "Ġserve": 4484,
      "Ġserved": 4485,
      "ĠGeorge": 4486,
      "Ġdetails": 4487,
      "Ġfriend": 4488,
      "37": 4489,
      "Is": 4490,
      "ixt": 4491,
      "rant": 4492,
      "ux": 4493,
      "west": 4494,
      "ĠDes": 4495,
      "Ġnote": 4496,
      "ĠLife": 4497,
      "Ġstudied": 4498,
      "Ġpresented": 4499,
      "ĠEnergy": 4500,
      "Ġelim": 4501,
      "Ġmotor": 4502,
      "Ġhomes": 4503,
      "Ġstories": 4504,
      "Ġperfect": 4505,
      "Ġproteins": 4506,
      "Ġmonitoring": 4507,
      "Ġstrategies": 4508,
      "Ġmit": 4509,
      "ager": 4510,
      "Ġemail": 4511,
      "Ġplanning": 4512,
      "Ġ80": 4513,
      "Ġinvolve": 4514,
      "ĠEnvironmental": 4515,
      "with": 4516,
      "Ġdoll": 4517,
      "ĠFore": 4518,
      "Ġchronic": 4519,
      "ormally": 4520,
      "Ġkept": 4521,
      "Ġreturned": 4522,
      "Ġconsumption": 4523,
      "Ġsquare": 4524,
      "Ġreferred": 4525,
      "Ġisol": 4526,
      "verty": 4527,
      "Ġspeech": 4528,
      "Ġincome": 4529,
      "rence": 4530,
      "Ġstatement": 4531,
      "ĠInformation": 4532,
      "ĠLear": 4533,
      "berg": 4534,
      "Ġpoverty": 4535,
      "Ġexpression": 4536,
      "Ġdescribe": 4537,
      "Ġeast": 4538,
      "othes": 4539,
      "amental": 4540,
      "Ġpret": 4541,
      "ensity": 4542,
      "Ġdecided": 4543,
      "Ġdetect": 4544,
      "Ġexperiment": 4545,
      "Ġauthors": 4546,
      "Ġimmune": 4547,
      "ping": 4548,
      "Ġmale": 4549,
      "ĠFederal": 4550,
      "Ġmeant": 4551,
      "ĠWhy": 4552,
      "Ġvision": 4553,
      "Ġsolid": 4554,
      "Ġbehavi": 4555,
      "Ġfrequently": 4556,
      "Ġsamples": 4557,
      "atically": 4558,
      "Ġbattle": 4559,
      "leg": 4560,
      "ĠArab": 4561,
      "that": 4562,
      "Ġrat": 4563,
      "Ġleaves": 4564,
      "Ġremained": 4565,
      "Ġmarine": 4566,
      "Ġletter": 4567,
      "isation": 4568,
      "Ġpip": 4569,
      "Ġfert": 4570,
      "Ġforced": 4571,
      "ĠBer": 4572,
      "Ġcoal": 4573,
      "Ġdiscrim": 4574,
      "Ġarticles": 4575,
      "ounced": 4576,
      "Ġantib": 4577,
      "Ġtrend": 4578,
      "Ġperformed": 4579,
      "Ġpolicies": 4580,
      "Ġfailure": 4581,
      "Ġprepared": 4582,
      "Be": 4583,
      "gl": 4584,
      "Ġplease": 4585,
      "Ġfields": 4586,
      "Ġliqu": 4587,
      "ollow": 4588,
      "ĠCast": 4589,
      "ĠPacific": 4590,
      "ĠGra": 4591,
      "Ġdisorder": 4592,
      "aped": 4593,
      "Ġclust": 4594,
      "Ġbecoming": 4595,
      "Ġexplain": 4596,
      "Ġextremely": 4597,
      "Many": 4598,
      "mp": 4599,
      "erate": 4600,
      "ndom": 4601,
      "ĠAir": 4602,
      "istan": 4603,
      "Ġanyone": 4604,
      "oviet": 4605,
      "ĠCharles": 4606,
      "Sp": 4607,
      "wood": 4608,
      "arrow": 4609,
      "Ġround": 4610,
      "Ġnotes": 4611,
      "Ġrandom": 4612,
      "Ġterrit": 4613,
      "Ġeggs": 4614,
      "ĠAlex": 4615,
      "ĠPM": 4616,
      "Ġupd": 4617,
      "Ġ35": 4618,
      "Ġsecret": 4619,
      "Ġmilk": 4620,
      "Ġbrother": 4621,
      "Ġoccurred": 4622,
      "tical": 4623,
      "zy": 4624,
      "ishes": 4625,
      "Ġbill": 4626,
      "raw": 4627,
      "ĠLabor": 4628,
      "Ġyourself": 4629,
      "Ġfeature": 4630,
      "Ġclassroom": 4631,
      "ĠAtlant": 4632,
      "do": 4633,
      "mark": 4634,
      "Ġcere": 4635,
      "Ġcris": 4636,
      "ĠBay": 4637,
      "umber": 4638,
      "Ġapply": 4639,
      "Ġhelped": 4640,
      "That": 4641,
      "ĠISBN": 4642,
      "Ġple": 4643,
      "Ġfif": 4644,
      "ĠLa": 4645,
      "ago": 4646,
      "Ġgets": 4647,
      "Ġexpert": 4648,
      "ĠFranc": 4649,
      "Ġchallenges": 4650,
      "75": 4651,
      "uit": 4652,
      "icon": 4653,
      "Ġheard": 4654,
      "Ġfamous": 4655,
      "BC": 4656,
      "kin": 4657,
      "yn": 4658,
      "Ġmere": 4659,
      "akers": 4660,
      "Ġpolice": 4661,
      "Ġelement": 4662,
      "ĠCentral": 4663,
      "Ġmotion": 4664,
      "aughter": 4665,
      "Ġreligion": 4666,
      "34": 4667,
      "lar": 4668,
      "Ġcast": 4669,
      "Ġbow": 4670,
      "Ġfine": 4671,
      "ilit": 4672,
      "olved": 4673,
      "Ġgal": 4674,
      "ĠOver": 4675,
      "Ġletters": 4676,
      "what": 4677,
      "ael": 4678,
      "Ġfit": 4679,
      "umn": 4680,
      "Ġcontaining": 4681,
      "Ġdesp": 4682,
      "Ġrecorded": 4683,
      "Ġhappen": 4684,
      "Ġmorning": 4685,
      "Ġdu": 4686,
      "Ġeffic": 4687,
      "Ġgain": 4688,
      "Ġstore": 4689,
      "Ġsave": 4690,
      "ĠIndians": 4691,
      "Ġ70": 4692,
      "Ġinitial": 4693,
      "Ġcounter": 4694,
      "Ġdiagnosis": 4695,
      "ĠTechnology": 4696,
      "Ġthick": 4697,
      "Ġlatter": 4698,
      "utive": 4699,
      "Ġhear": 4700,
      "Ġjustice": 4701,
      "Ġgrand": 4702,
      "Ġelection": 4703,
      "Ġregarding": 4704,
      "Ġdrinking": 4705,
      "Ġbottom": 4706,
      "Ġgarden": 4707,
      "ĠVirgin": 4708,
      "yr": 4709,
      "Ġmamm": 4710,
      "ĠSl": 4711,
      "Ġspent": 4712,
      "ĠJer": 4713,
      "Ġcomprehens": 4714,
      "ĠKe": 4715,
      "Ġremember": 4716,
      "Ġcounty": 4717,
      "Ġresulting": 4718,
      "Ġfinding": 4719,
      "Ġmetal": 4720,
      "Ġsaying": 4721,
      "Ġinvolves": 4722,
      "Ġsignificantly": 4723,
      "31": 4724,
      "oice": 4725,
      "ching": 4726,
      "ĠRights": 4727,
      "Ġgraph": 4728,
      "Ġbackground": 4729,
      "ĠReview": 4730,
      "Ġmathemat": 4731,
      "ĠQue": 4732,
      "Ġamounts": 4733,
      "Ġcycle": 4734,
      "Ġacademic": 4735,
      "gra": 4736,
      "ero": 4737,
      "Ġnav": 4738,
      "ĠWild": 4739,
      "Ġju": 4740,
      "Ġattitude": 4741,
      "Ġwanted": 4742,
      "Ġabsor": 4743,
      "Ġpreviously": 4744,
      "Ġsymbol": 4745,
      "works": 4746,
      "zing": 4747,
      "add": 4748,
      "ĠLake": 4749,
      "ributed": 4750,
      "Ġlinked": 4751,
      "iled": 4752,
      "Ġstars": 4753,
      "Ġschem": 4754,
      "which": 4755,
      "Ġdigital": 4756,
      "Ġburn": 4757,
      "Ġdram": 4758,
      "olid": 4759,
      "ĠSub": 4760,
      "ĠMiddle": 4761,
      "Ġshut": 4762,
      "Ġfinally": 4763,
      "Ġoptions": 4764,
      "ĠFlorida": 4765,
      "Cl": 4766,
      "mal": 4767,
      "point": 4768,
      "omic": 4769,
      "Ġconvers": 4770,
      "romos": 4771,
      "Ġsugar": 4772,
      "ception": 4773,
      "Ġshowing": 4774,
      "Ġcausing": 4775,
      "Ġcollabor": 4776,
      "Ġsusp": 4777,
      "ĠRobert": 4778,
      "Res": 4779,
      "met": 4780,
      "urance": 4781,
      "Ġconstitution": 4782,
      "ĠPenn": 4783,
      "pective": 4784,
      "ĠCarol": 4785,
      "Ġphenomen": 4786,
      "cest": 4787,
      "mit": 4788,
      "rum": 4789,
      "rans": 4790,
      "uing": 4791,
      "uild": 4792,
      "Ġcontem": 4793,
      "Ġappoint": 4794,
      "Ġchanging": 4795,
      "Ġdegrees": 4796,
      "Ġprinciples": 4797,
      "ĠFoundation": 4798,
      "AD": 4799,
      "CC": 4800,
      "Ġsav": 4801,
      "Ġmouth": 4802,
      "Ġstim": 4803,
      "ĠMat": 4804,
      "ĠGreek": 4805,
      "Ġintended": 4806,
      "Ġarm": 4807,
      "Ġteach": 4808,
      "Ġprefer": 4809,
      "Ġstarting": 4810,
      "Ġchallenge": 4811,
      "Ġsample": 4812,
      "Ġhabitat": 4813,
      "Ġbalance": 4814,
      "ĠLouis": 4815,
      "Ġnations": 4816,
      "Ġinform": 4817,
      "Ġmostly": 4818,
      "Ġ90": 4819,
      "ĠColumb": 4820,
      "Ġbiological": 4821,
      "Ab": 4822,
      "vis": 4823,
      "ini": 4824,
      "Ġbond": 4825,
      "Ġexcess": 4826,
      "ĠJe": 4827,
      "Ġcreation": 4828,
      "Ġcompleted": 4829,
      "Ġleader": 4830,
      "ĠCancer": 4831,
      "Ġcomponents": 4832,
      "SI": 4833,
      "ares": 4834,
      "bal": 4835,
      "crib": 4836,
      "pat": 4837,
      "Ġtour": 4838,
      "Ġsalt": 4839,
      "icit": 4840,
      "icial": 4841,
      "iling": 4842,
      "ĠTur": 4843,
      "ĠGal": 4844,
      "rick": 4845,
      "Ġexperts": 4846,
      "Ġcontinues": 4847,
      "Ġcharge": 4848,
      "Ġmachine": 4849,
      "Most": 4850,
      "RO": 4851,
      "ST": 4852,
      "inations": 4853,
      "anks": 4854,
      "astern": 4855,
      "ĠCamb": 4856,
      "ams": 4857,
      "Ġkil": 4858,
      "Ġtechnique": 4859,
      "Ġdepos": 4860,
      "Ġmaximum": 4861,
      "ĠMexico": 4862,
      "No": 4863,
      "Ã¶": 4864,
      "Ġther": 4865,
      "ingly": 4866,
      "Ġreality": 4867,
      "olute": 4868,
      "ĠDon": 4869,
      "elled": 4870,
      "ĠSte": 4871,
      "Ġcharacteristics": 4872,
      "Although": 4873,
      "pre": 4874,
      "tle": 4875,
      "Ġiron": 4876,
      "Ġwestern": 4877,
      "road": 4878,
      "Ġdirector": 4879,
      "Ġdivided": 4880,
      "tes": 4881,
      "Ġcovered": 4882,
      "Ġdrop": 4883,
      "Ġhospital": 4884,
      "Ġconvent": 4885,
      "ĠMil": 4886,
      "ibl": 4887,
      "Ġextent": 4888,
      "Ġdiscussion": 4889,
      "Ġpun": 4890,
      "ĠSoviet": 4891,
      "ĠFood": 4892,
      "Ġdiss": 4893,
      "Ġgoals": 4894,
      "Ġ45": 4895,
      "Ġsuggested": 4896,
      "ĠIII": 4897,
      "cers": 4898,
      "Ġtrou": 4899,
      "Ġneu": 4900,
      "Ġorganisms": 4901,
      "Ġviolence": 4902,
      "atabase": 4903,
      "band": 4904,
      "gal": 4905,
      "uration": 4906,
      "Ġstyle": 4907,
      "Ġintellect": 4908,
      "Ġmanner": 4909,
      "obe": 4910,
      "ossible": 4911,
      "Ġscen": 4912,
      "Ġcenturies": 4913,
      "Ġdiscovery": 4914,
      "Ġprocessing": 4915,
      "Ġ1998": 4916,
      "Ġlargely": 4917,
      "Ġpaid": 4918,
      "Ġded": 4919,
      "igen": 4920,
      "Ġitems": 4921,
      "illing": 4922,
      "Ġobvious": 4923,
      "Ġdiscover": 4924,
      "ructure": 4925,
      "Ġguide": 4926,
      "Ġoperation": 4927,
      "Ġcombined": 4928,
      "Ġconnected": 4929,
      "Ġprimarily": 4930,
      "Ġdefinition": 4931,
      "Ġadvantage": 4932,
      "alle": 4933,
      "Ġinternal": 4934,
      "Ġrenew": 4935,
      "ĠMem": 4936,
      "erences": 4937,
      "Ġgovernments": 4938,
      "Ġsubstant": 4939,
      "Ġvictim": 4940,
      "ĠOffice": 4941,
      "ca": 4942,
      "Ġaesthetic": 4943,
      "Ġbright": 4944,
      "Ġinh": 4945,
      "Ġhour": 4946,
      "idity": 4947,
      "ĠJud": 4948,
      "Ġtrig": 4949,
      "Ġauthority": 4950,
      "Ġfiles": 4951,
      "Ġcircum": 4952,
      "Ġclaims": 4953,
      "Ġemergency": 4954,
      "ĠRussian": 4955,
      "Ġinstitutions": 4956,
      "Ġaspects": 4957,
      "ĠHenry": 4958,
      "Ġprices": 4959,
      "Sh": 4960,
      "care": 4961,
      "lements": 4962,
      "Ġonto": 4963,
      "ĠLatin": 4964,
      "Ġspot": 4965,
      "Ġoutput": 4966,
      "Ġconsists": 4967,
      "Ġeasier": 4968,
      "Ġdocuments": 4969,
      "Ġreplace": 4970,
      "ĠChev": 4971,
      "Ġtask": 4972,
      "Ġsen": 4973,
      "Ġsong": 4974,
      "Ġperman": 4975,
      "asses": 4976,
      "ishing": 4977,
      "Ġ31": 4978,
      "Ġconsult": 4979,
      "rolog": 4980,
      "Ġrisks": 4981,
      "ĠConstitution": 4982,
      "ĠCommittee": 4983,
      "Ġparticipants": 4984,
      "yroid": 4985,
      "pd": 4986,
      "ented": 4987,
      "ulating": 4988,
      "ĠNav": 4989,
      "ĠUK": 4990,
      "Ġremove": 4991,
      "Now": 4992,
      "ita": 4993,
      "Ġfib": 4994,
      "roph": 4995,
      "change": 4996,
      "umin": 4997,
      "osen": 4998,
      "Ġincorpor": 4999,
      "Ġunits": 5000,
      "Ġraised": 5001,
      "Ġidentity": 5002,
      "Ġconcepts": 5003,
      "Ġexperienced": 5004,
      "Ġpieces": 5005,
      "LE": 5006,
      "Other": 5007,
      "Ġgar": 5008,
      "ĠMD": 5009,
      "ĠWork": 5010,
      "ĠElect": 5011,
      "Ġapparent": 5012,
      "Ġready": 5013,
      "ĠOrgan": 5014,
      "Ġrecommended": 5015,
      "idelines": 5016,
      "bi": 5017,
      "ball": 5018,
      "ii": 5019,
      "rat": 5020,
      "Ġgall": 5021,
      "ĠSom": 5022,
      "ĠMr": 5023,
      "ĠNatural": 5024,
      "Ġdecisions": 5025,
      "ortunately": 5026,
      "Ġindicate": 5027,
      "board": 5028,
      "Ġappeared": 5029,
      "cript": 5030,
      "rich": 5031,
      "ya": 5032,
      "ĠToday": 5033,
      "Ġgames": 5034,
      "ĠAN": 5035,
      "Ġsufficient": 5036,
      "ĠGroup": 5037,
      "Ġoperating": 5038,
      "Ġtitle": 5039,
      "Ġsin": 5040,
      "Ġstem": 5041,
      "iform": 5042,
      "ĠBible": 5043,
      "place": 5044,
      "ĠKore": 5045,
      "Ġdistrict": 5046,
      "Ġsupported": 5047,
      "Ġauthorities": 5048,
      "Ġhousehold": 5049,
      "ĠCatholic": 5050,
      "According": 5051,
      "SA": 5052,
      "Ã¡": 5053,
      "Ġcore": 5054,
      "ĠSum": 5055,
      "ulum": 5056,
      "Ġchart": 5057,
      "Ġjur": 5058,
      "Ġsyndrome": 5059,
      "cyclop": 5060,
      "Ġtested": 5061,
      "Ġreducing": 5062,
      "Ġexistence": 5063,
      "Ġfundamental": 5064,
      "Ġwildlife": 5065,
      "Ġinjury": 5066,
      "ĠMiG": 5067,
      "49": 5068,
      "Ġhop": 5069,
      "Ġnit": 5070,
      "Ġisland": 5071,
      "ĠCap": 5072,
      "ĠWomen": 5073,
      "ĠOld": 5074,
      "Ġexplan": 5075,
      "ĠScient": 5076,
      "Ġhundreds": 5077,
      "ĠSmith": 5078,
      "ih": 5079,
      "Ġband": 5080,
      "Ġexcell": 5081,
      "ĠEconom": 5082,
      "inson": 5083,
      "ĠCompany": 5084,
      "ĠJapanese": 5085,
      "Ġfarmers": 5086,
      "Ġdestroyed": 5087,
      "iatric": 5088,
      "alog": 5089,
      "Ġtwenty": 5090,
      "Ġoffered": 5091,
      "Ġfigures": 5092,
      "Ġportion": 5093,
      "nel": 5094,
      "rust": 5095,
      "inf": 5096,
      "resents": 5097,
      "Ġdisapp": 5098,
      "ĠHeb": 5099,
      "Ġinterf": 5100,
      "Ġorganic": 5101,
      "iveness": 5102,
      "Ġrequirements": 5103,
      "Ġpollution": 5104,
      "76": 5105,
      "ta": 5106,
      "Ġpick": 5107,
      "ania": 5108,
      "ancing": 5109,
      "rolet": 5110,
      "ĠMark": 5111,
      "Ġbuildings": 5112,
      "Ġpregnancy": 5113,
      "Ġconflict": 5114,
      "Ġped": 5115,
      "ĠDist": 5116,
      "ears": 5117,
      "Ġwealth": 5118,
      "Ġclos": 5119,
      "Ġexplore": 5120,
      "Ġmeasured": 5121,
      "Ġimproved": 5122,
      "Ġvolume": 5123,
      "Ġjobs": 5124,
      "More": 5125,
      "comm": 5126,
      "ses": 5127,
      "Ġdust": 5128,
      "ĠPub": 5129,
      "ĠThomas": 5130,
      "Ġnewsp": 5131,
      "ĠProv": 5132,
      "Ġ1997": 5133,
      "Ġadvice": 5134,
      "Ġrecognized": 5135,
      "Ġvillage": 5136,
      "ĠAcademy": 5137,
      "Ġfal": 5138,
      "Ġinput": 5139,
      "Ġhorm": 5140,
      "Ġotherwise": 5141,
      "ĠStand": 5142,
      "enses": 5143,
      "Ġpromote": 5144,
      "Ġhappens": 5145,
      "Ġsubstance": 5146,
      "Ġsequence": 5147,
      "ĠTwo": 5148,
      "Ġslightly": 5149,
      "col": 5150,
      "Ġtun": 5151,
      "state": 5152,
      "ĠPet": 5153,
      "Ġvast": 5154,
      "Ġspl": 5155,
      "ĠOp": 5156,
      "ague": 5157,
      "achuse": 5158,
      "Ġtrust": 5159,
      "Ġclasses": 5160,
      "Ġfailed": 5161,
      "Ġutil": 5162,
      "Ġdynam": 5163,
      "Ġexactly": 5164,
      "100": 5165,
      "Ġsnow": 5166,
      "Ġwet": 5167,
      "Ġstored": 5168,
      "Ġ1995": 5169,
      "Ġcontinuous": 5170,
      "Ġgreatest": 5171,
      "Ġerror": 5172,
      "Ġconcerned": 5173,
      "Ġspiritual": 5174,
      "tra": 5175,
      "tts": 5176,
      "inet": 5177,
      "Ġhit": 5178,
      "ĠBen": 5179,
      "Ġintellig": 5180,
      "Ġkm": 5181,
      "Ġknew": 5182,
      "Ġroof": 5183,
      "Ġsurpris": 5184,
      "Ġeffectively": 5185,
      "achusetts": 5186,
      ".'": 5187,
      "AP": 5188,
      "reed": 5189,
      "ĠPers": 5190,
      "ĠPower": 5191,
      "pping": 5192,
      "aker": 5193,
      "Ġarms": 5194,
      "Ġinfections": 5195,
      "Ġspecifically": 5196,
      "Ġdistingu": 5197,
      "Ġallowing": 5198,
      "ĠHistor": 5199,
      "44": 5200,
      "inter": 5201,
      "Ġdie": 5202,
      "celer": 5203,
      "Ġnotice": 5204,
      "Ġleaving": 5205,
      "Ġbutter": 5206,
      "Ġbuy": 5207,
      "Ġdangerous": 5208,
      "Ġneighbor": 5209,
      "Ġtroops": 5210,
      "vision": 5211,
      "ville": 5212,
      "stood": 5213,
      "amil": 5214,
      "ĠVict": 5215,
      "Ġ188": 5216,
      "Ġcalls": 5217,
      "Ġsetting": 5218,
      "clusion": 5219,
      "Ġinterests": 5220,
      "Ġproperly": 5221,
      "Ġviews": 5222,
      "going": 5223,
      "Ġaccepted": 5224,
      "Ġwarming": 5225,
      "Ġprocedure": 5226,
      "Ġbegins": 5227,
      "Ġcamer": 5228,
      "Ġfell": 5229,
      "Ġfelt": 5230,
      "Ġfrag": 5231,
      "ĠBas": 5232,
      "ĠDef": 5233,
      "ivation": 5234,
      "Ġshot": 5235,
      "rows": 5236,
      "Ġera": 5237,
      "ĠStudents": 5238,
      "Ġmillions": 5239,
      "Ġmentioned": 5240,
      "De": 5241,
      "iated": 5242,
      "nic": 5243,
      "Ġtiny": 5244,
      "onic": 5245,
      "oral": 5246,
      "Ġdial": 5247,
      "Ġthin": 5248,
      "ĠPsych": 5249,
      "opy": 5250,
      "Ġowners": 5251,
      "standing": 5252,
      "Ġadvoc": 5253,
      "Ġdescription": 5254,
      "Ġcollege": 5255,
      "ĠReport": 5256,
      "Ġrelationships": 5257,
      "Ġmanufacture": 5258,
      "Ġagricultural": 5259,
      "heim": 5260,
      "Ġwww": 5261,
      "Ġmos": 5262,
      "Ġ300": 5263,
      "espite": 5264,
      "Ġ1980": 5265,
      "Ġcollected": 5266,
      "Ġconcern": 5267,
      "However": 5268,
      "lers": 5269,
      "ras": 5270,
      "rating": 5271,
      "Ġ<": 5272,
      "Ġstation": 5273,
      "unk": 5274,
      "active": 5275,
      "Ġcommit": 5276,
      "Ġcolors": 5277,
      "Ġadvanced": 5278,
      "Ġapproaches": 5279,
      "Ġeastern": 5280,
      "Ġtrials": 5281,
      "Ġlooks": 5282,
      "Ġimpacts": 5283,
      "Ġrapidly": 5284,
      "During": 5285,
      "ship": 5286,
      "vity": 5287,
      "Ġcards": 5288,
      "ada": 5289,
      "ĠBrown": 5290,
      "ĠLet": 5291,
      "oster": 5292,
      "Ġequival": 5293,
      "Ġfacilities": 5294,
      "Ġsustainable": 5295,
      "RC": 5296,
      "chers": 5297,
      "gment": 5298,
      "ki": 5299,
      "Ġpray": 5300,
      "Ġbrief": 5301,
      "otic": 5302,
      "ĠBel": 5303,
      "osite": 5304,
      "ĠWind": 5305,
      "Ġrough": 5306,
      "Ġreduction": 5307,
      "Ġbird": 5308,
      "Ġdetailed": 5309,
      "Ġrepeated": 5310,
      "ka": 5311,
      "Ġpil": 5312,
      "olars": 5313,
      "heric": 5314,
      "ects": 5315,
      "osystem": 5316,
      "ĠDan": 5317,
      "Ġallerg": 5318,
      "Ġrepresents": 5319,
      "Ġcritic": 5320,
      "Ġresponsibility": 5321,
      "Ġoriginally": 5322,
      "Ġelectrical": 5323,
      "Ġcrisis": 5324,
      "EL": 5325,
      "OT": 5326,
      "down": 5327,
      "ãģ": 5328,
      "ĠBudd": 5329,
      "ĠNorthern": 5330,
      "Ġroot": 5331,
      "Ġattacks": 5332,
      "Ġtopics": 5333,
      "Ġrevolution": 5334,
      "Ġbeautiful": 5335,
      "Ġwife": 5336,
      "otes": 5337,
      "Ġexternal": 5338,
      "ĠDise": 5339,
      "Ġelectronic": 5340,
      "Ġlooked": 5341,
      "ĠConn": 5342,
      "Ġcapable": 5343,
      "ĠSea": 5344,
      "ifying": 5345,
      "ocratic": 5346,
      "Ġmoist": 5347,
      "war": 5348,
      "Ġsend": 5349,
      "Ġpump": 5350,
      "Ġfly": 5351,
      "Ġfaster": 5352,
      "iced": 5353,
      "Ġfort": 5354,
      "ĠMa": 5355,
      "ĠHol": 5356,
      "Ġhaz": 5357,
      "idden": 5358,
      "Ġ1970": 5359,
      "Ġinfluen": 5360,
      "Ġconcerns": 5361,
      "ĠPeace": 5362,
      "Ġlaboratory": 5363,
      "Ġmolecules": 5364,
      "Ġencourage": 5365,
      "Ġstraight": 5366,
      "DF": 5367,
      "Here": 5368,
      "itud": 5369,
      "Ġpure": 5370,
      "ĠSuch": 5371,
      "iring": 5372,
      "Ġexpensive": 5373,
      "ĠArmy": 5374,
      "Ġorganized": 5375,
      "Ġnutrition": 5376,
      "Ġadjust": 5377,
      "ded": 5378,
      "kes": 5379,
      "stream": 5380,
      "irty": 5381,
      "Ġyellow": 5382,
      "ĠBa": 5383,
      "ĠBook": 5384,
      "Ġrural": 5385,
      "ĠLong": 5386,
      "ĠJose": 5387,
      "Ġcloth": 5388,
      "Ġprepar": 5389,
      "Ġtraffic": 5390,
      "ieties": 5391,
      "Ġadvance": 5392,
      "Ġengineering": 5393,
      "ĠCorps": 5394,
      "Ġdouble": 5395,
      "05": 5396,
      "48": 5397,
      "Ġ#": 5398,
      "ategy": 5399,
      "ĠWord": 5400,
      "ĠLibrary": 5401,
      "Ġparties": 5402,
      "Ġtransform": 5403,
      "example": 5404,
      "Ġsky": 5405,
      "Ġstrategy": 5406,
      "Ġrelevant": 5407,
      "Ġmulti": 5408,
      "Ġfamiliar": 5409,
      "aturally": 5410,
      "Ġliver": 5411,
      "ĠPri": 5412,
      "emia": 5413,
      "ĠDar": 5414,
      "Ġplastic": 5415,
      "âĢĿ.": 5416,
      "Ġunless": 5417,
      "Ġsupplies": 5418,
      "Ġprotected": 5419,
      "comp": 5420,
      "rapy": 5421,
      "Ġtopic": 5422,
      "Ġurban": 5423,
      "Ġpaint": 5424,
      "Ġprofession": 5425,
      "Ġprocedures": 5426,
      "last": 5427,
      "tion": 5428,
      "Ġod": 5429,
      "Ġfle": 5430,
      "Ġnarrow": 5431,
      "ĠTimes": 5432,
      "ĠST": 5433,
      "Ġancest": 5434,
      "ĠFort": 5435,
      "Ġphase": 5436,
      "Ġtechnical": 5437,
      "Ġlands": 5438,
      "Ġfrequency": 5439,
      "pidem": 5440,
      "Ġincreasingly": 5441,
      "ĠMassachusetts": 5442,
      "Ġintellectual": 5443,
      "inity": 5444,
      "Ġbed": 5445,
      "ĠSal": 5446,
      "atever": 5447,
      "ache": 5448,
      "Ġfacts": 5449,
      "Ġdepth": 5450,
      "Ġgoods": 5451,
      "Ġdogs": 5452,
      "Ġliquid": 5453,
      "Ġsides": 5454,
      "ompl": 5455,
      "Ġnan": 5456,
      "olf": 5457,
      "ĠOnce": 5458,
      "ework": 5459,
      "ĠArctic": 5460,
      "ĠAtt": 5461,
      "Ġmovements": 5462,
      "ictionary": 5463,
      "Ġpurposes": 5464,
      "Ġcredit": 5465,
      "eria": 5466,
      "cel": 5467,
      "agues": 5468,
      "Ġclosed": 5469,
      "inding": 5470,
      "Ġagency": 5471,
      "Ġ36": 5472,
      "Ġtried": 5473,
      "Ġsubjects": 5474,
      "Ġclosely": 5475,
      "Ġabsolute": 5476,
      "Ġmalaria": 5477,
      "Ġsurrounding": 5478,
      "Ġcontrolled": 5479,
      "sen": 5480,
      "Äģ": 5481,
      "Ġtail": 5482,
      "Ġdaughter": 5483,
      "racy": 5484,
      "ĠMP": 5485,
      "ifies": 5486,
      "ĠRad": 5487,
      "Ġrub": 5488,
      "Ġclim": 5489,
      "ĠTherefore": 5490,
      "ercury": 5491,
      "Ġexperiments": 5492,
      "CO": 5493,
      "Ind": 5494,
      "inent": 5495,
      "inant": 5496,
      "orph": 5497,
      "alian": 5498,
      "Ġbones": 5499,
      "Ġnormally": 5500,
      "oln": 5501,
      "ĠBoth": 5502,
      "ogle": 5503,
      "Ġexpressed": 5504,
      "Ġformal": 5505,
      "Ġformation": 5506,
      "Ġ1993": 5507,
      "ĠSciences": 5508,
      "Gen": 5509,
      "Ġlik": 5510,
      "oston": 5511,
      "Ġacceler": 5512,
      "Ġmainly": 5513,
      "ĠColor": 5514,
      "azine": 5515,
      "Ġplayed": 5516,
      "Ġmassive": 5517,
      "Ġadopted": 5518,
      "unteers": 5519,
      "Ġwonder": 5520,
      "avery": 5521,
      "normal": 5522,
      "ston": 5523,
      "Ġnine": 5524,
      "Ġshar": 5525,
      "apes": 5526,
      "Ġdecade": 5527,
      "Ġkinds": 5528,
      "Ġassessment": 5529,
      "ĠRussia": 5530,
      "Ġpregnant": 5531,
      "Ġdoubt": 5532,
      "Ġfossil": 5533,
      "ĠHebrew": 5534,
      "zen": 5535,
      "Ã¼": 5536,
      "Ġborder": 5537,
      "Ġmaster": 5538,
      "ĠSou": 5539,
      "amily": 5540,
      "ĠMo": 5541,
      "ava": 5542,
      "Ġrelation": 5543,
      "Ġregional": 5544,
      "Ġsubsequ": 5545,
      "Ġflat": 5546,
      "Ġfounded": 5547,
      "Ġseek": 5548,
      "exp": 5549,
      "Ġdepending": 5550,
      "Ġtypical": 5551,
      "Ġsounds": 5552,
      "Ġmembrane": 5553,
      "'m": 5554,
      "ION": 5555,
      "uable": 5556,
      "Ġax": 5557,
      "Ġreject": 5558,
      "ĠBi": 5559,
      "ĠBot": 5560,
      "Ġcomment": 5561,
      "Ġselection": 5562,
      "Ġphone": 5563,
      "ĠSpanish": 5564,
      "Ġpossess": 5565,
      "Ġpossibility": 5566,
      "Ġaircraft": 5567,
      "Ġbrown": 5568,
      "Ġflowers": 5569,
      "Ġdiscussed": 5570,
      "ĠSecurity": 5571,
      "Ġprecise": 5572,
      "EM": 5573,
      "reci": 5574,
      "itter": 5575,
      "ĠHel": 5576,
      "cience": 5577,
      "Ġleads": 5578,
      "Ġlandsc": 5579,
      "rison": 5580,
      "Ġbroken": 5581,
      "Ġlimits": 5582,
      "Ġmuscles": 5583,
      "Ġcertainly": 5584,
      "Ġfunding": 5585,
      "een": 5586,
      "ĠÃ": 5587,
      "inating": 5588,
      "ora": 5589,
      "icians": 5590,
      "ĠPeter": 5591,
      "Ġalle": 5592,
      "ĠHall": 5593,
      "ĠDiv": 5594,
      "aks": 5595,
      "Ġinstall": 5596,
      "Ġparticles": 5597,
      "Ġexplained": 5598,
      "Ġwalls": 5599,
      "Ġphysician": 5600,
      "ĠMichael": 5601,
      "Ġenemy": 5602,
      "Ġgalax": 5603,
      "46": 5604,
      "inction": 5605,
      "itness": 5606,
      "Ġheight": 5607,
      "ĠNature": 5608,
      "Ġphr": 5609,
      "Ġpoet": 5610,
      "Ġperiods": 5611,
      "ĠSecond": 5612,
      "Ġexperiences": 5613,
      "Ġvegetables": 5614,
      "Ġsector": 5615,
      "Ġpestic": 5616,
      "Ġfing": 5617,
      "Ġmort": 5618,
      "Ġmuseum": 5619,
      "Ġstated": 5620,
      "osal": 5621,
      "Ġsuc": 5622,
      "ĠGr": 5623,
      "ureau": 5624,
      "Ġimpossible": 5625,
      "Ġanswers": 5626,
      "Ġthousand": 5627,
      "Ġtransmission": 5628,
      "Ġhyper": 5629,
      "Ġhouses": 5630,
      "Ġdespite": 5631,
      "cons": 5632,
      "rot": 5633,
      "roke": 5634,
      "Ġnarr": 5635,
      "ĠTor": 5636,
      "ĠCa": 5637,
      "ĠIll": 5638,
      "anged": 5639,
      "Ġacts": 5640,
      "Ġaccomp": 5641,
      "ĠYet": 5642,
      "Ġattached": 5643,
      "Ġpractical": 5644,
      "Ġprompt": 5645,
      "ipped": 5646,
      "Ġastron": 5647,
      "greg": 5648,
      "ny": 5649,
      "itage": 5650,
      "Ġdut": 5651,
      "Ġprohib": 5652,
      "abil": 5653,
      "ĠAnother": 5654,
      "Ġshel": 5655,
      "Ġcareer": 5656,
      "Ġmarriage": 5657,
      "Ġharvest": 5658,
      "Ġdiscrimination": 5659,
      "Ġfirm": 5660,
      "Ġhem": 5661,
      "Ġvul": 5662,
      "ĠFre": 5663,
      "ĠNations": 5664,
      "ĠChic": 5665,
      "erman": 5666,
      "Ġproducing": 5667,
      "Ġdecline": 5668,
      "Ġextract": 5669,
      "venue": 5670,
      "Ġgreatly": 5671,
      "Ġappearance": 5672,
      "Ġhappened": 5673,
      "Ġemployment": 5674,
      "Ġsurvival": 5675,
      "Ġcomponent": 5676,
      "ooth": 5677,
      "ctive": 5678,
      "Ġrecy": 5679,
      "Ġfloor": 5680,
      "Ġlanguages": 5681,
      "Ġobservations": 5682,
      "ĠCanadian": 5683,
      "Ġconcentration": 5684,
      "Ġimmediate": 5685,
      "Ġtumor": 5686,
      "sembly": 5687,
      "Ġefficiency": 5688,
      "ĠVirginia": 5689,
      "ĠColumbia": 5690,
      "ĠChevrolet": 5691,
      "47": 5692,
      "Im": 5693,
      "eor": 5694,
      "liam": 5695,
      "Ġ>": 5696,
      "Ġsick": 5697,
      "Ġflex": 5698,
      "Ġdatabase": 5699,
      "Ġgrown": 5700,
      "urd": 5701,
      "ĠMont": 5702,
      "ĠFurther": 5703,
      "Ġresist": 5704,
      "Ġdoctors": 5705,
      "Ġindeed": 5706,
      "Ġformat": 5707,
      "Ġrequest": 5708,
      "Ġissued": 5709,
      "Ġvector": 5710,
      "Ġopened": 5711,
      "Ġcomputers": 5712,
      "Ġcouple": 5713,
      "Ġobtained": 5714,
      "ĠProfessor": 5715,
      "Ġlatest": 5716,
      "Note": 5717,
      "no": 5718,
      "Ġfold": 5719,
      "olve": 5720,
      "ĠEth": 5721,
      "ĠEvery": 5722,
      "ĠOcean": 5723,
      "Ġmedium": 5724,
      "Ġinstruction": 5725,
      "iodiversity": 5726,
      "Ġpictures": 5727,
      "stein": 5728,
      "HO": 5729,
      "such": 5730,
      "heast": 5731,
      "Ġmist": 5732,
      "Ġtow": 5733,
      "ĠAp": 5734,
      "ĠPost": 5735,
      "ĠNat": 5736,
      "reatment": 5737,
      "Ġtwice": 5738,
      "oven": 5739,
      "Ġobl": 5740,
      "ĠAnn": 5741,
      "Ġcomprehensive": 5742,
      "cher": 5743,
      "mic": 5744,
      "Ġcart": 5745,
      "Ġcrim": 5746,
      "Ġlibrary": 5747,
      "ulin": 5748,
      "ĠHome": 5749,
      "Ġvital": 5750,
      "Ġaccompl": 5751,
      "Ġresulted": 5752,
      "ymph": 5753,
      "ognitive": 5754,
      "Ġlaun": 5755,
      "Ġreplaced": 5756,
      "Ġearthqu": 5757,
      "Ġindependence": 5758,
      "Ġselected": 5759,
      "Ġkidney": 5760,
      "Our": 5761,
      "ario": 5762,
      "Ġperce": 5763,
      "Ġsignal": 5764,
      "Ġrepresented": 5765,
      "aska": 5766,
      "02": 5767,
      "500": 5768,
      "88": 5769,
      "IA": 5770,
      "Te": 5771,
      "kins": 5772,
      "ĠLu": 5773,
      "ĠLab": 5774,
      "Ġplat": 5775,
      "Ġagencies": 5776,
      "Ġunderstood": 5777,
      "athy": 5778,
      "Ġhelping": 5779,
      "vironments": 5780,
      "Ġlisted": 5781,
      "Ġlayers": 5782,
      "Ġargument": 5783,
      "Ġprinciple": 5784,
      "Con": 5785,
      "Ġnaturally": 5786,
      "ima": 5787,
      "ĠAri": 5788,
      "alls": 5789,
      "ropical": 5790,
      "Ġsubs": 5791,
      "Ġminimum": 5792,
      "Ġelected": 5793,
      "Ġaffects": 5794,
      "Ġprevention": 5795,
      "ĠRobin": 5796,
      "ĠFrancisc": 5797,
      "03": 5798,
      "ding": 5799,
      "eal": 5800,
      "Ġtheories": 5801,
      "Ġgone": 5802,
      "Ġaren": 5803,
      "ĠDel": 5804,
      "ĠLeg": 5805,
      "Ġresidents": 5806,
      "Ġarts": 5807,
      "Ġunlike": 5808,
      "Ġinfected": 5809,
      "Ġassistance": 5810,
      "ĠForce": 5811,
      "Ġpotentially": 5812,
      "Ġkeeping": 5813,
      "Ġentirely": 5814,
      "ĠStudies": 5815,
      "Ġmechanism": 5816,
      "Ġsatis": 5817,
      "Ġslowly": 5818,
      "Ġnutri": 5819,
      "rem": 5820,
      "rey": 5821,
      "Ġoption": 5822,
      "Ġtoler": 5823,
      "ĠAD": 5824,
      "ĠBet": 5825,
      "iest": 5826,
      "ansion": 5827,
      "ĠThose": 5828,
      "ĠStreet": 5829,
      "riculum": 5830,
      "Ġ1994": 5831,
      "Another": 5832,
      "Ġfeeling": 5833,
      "Ġlaunch": 5834,
      "Ġfluid": 5835,
      "Ġsurvive": 5836,
      "Ġsatell": 5837,
      "Ġjoined": 5838,
      "Ġemotional": 5839,
      "ioxide": 5840,
      "ĠCarolina": 5841,
      "HA": 5842,
      "know": 5843,
      "rint": 5844,
      "orrow": 5845,
      "itan": 5846,
      "Ġindu": 5847,
      "Ġlies": 5848,
      "Ġconstit": 5849,
      "ĠMu": 5850,
      "acher": 5851,
      "ĠOx": 5852,
      "Ġrefers": 5853,
      "Ġfollows": 5854,
      "Ġparalle": 5855,
      "Ġbiology": 5856,
      "Ġphotograph": 5857,
      "ĠGlobal": 5858,
      "Ġopinion": 5859,
      "organ": 5860,
      "ĠGood": 5861,
      "ipal": 5862,
      "uality": 5863,
      "Ġworldwide": 5864,
      "Ġextensive": 5865,
      "ĠAdminist": 5866,
      "Ġnucle": 5867,
      "ĠFrank": 5868,
      "Ġadministration": 5869,
      "Ġcrops": 5870,
      "cyclopedia": 5871,
      "CD": 5872,
      "http": 5873,
      "iate": 5874,
      "Â·": 5875,
      "Ġwire": 5876,
      "asure": 5877,
      "ĠTer": 5878,
      "etics": 5879,
      "ĠIV": 5880,
      "ĠBoston": 5881,
      "Ġchick": 5882,
      "Ġoccasion": 5883,
      "Ġhydrogen": 5884,
      "Ġinflamm": 5885,
      "TM": 5886,
      "eper": 5887,
      "leton": 5888,
      "Ġabuse": 5889,
      "luding": 5890,
      "Ġinsp": 5891,
      "Ġtreatments": 5892,
      "Ġfocused": 5893,
      "ING": 5894,
      "liament": 5895,
      "55": 5896,
      "UN": 5897,
      "field": 5898,
      "ĠTHE": 5899,
      "Ġorient": 5900,
      "throp": 5901,
      "ĠDisc": 5902,
      "Ġdiscipl": 5903,
      "Ġjour": 5904,
      "Ġblog": 5905,
      "Ġmedic": 5906,
      "ĠClass": 5907,
      "Ġemployees": 5908,
      "Ġsensitive": 5909,
      "ĠEmpire": 5910,
      "Ġpermanent": 5911,
      "Ġexcellent": 5912,
      "77": 5913,
      "DP": 5914,
      "called": 5915,
      "from": 5916,
      "wo": 5917,
      "Ġbud": 5918,
      "ione": 5919,
      "vert": 5920,
      "ĠWell": 5921,
      "eck": 5922,
      "Ġraise": 5923,
      "Ġindex": 5924,
      "Ġsupposed": 5925,
      "ĠExp": 5926,
      "Ġnecessarily": 5927,
      "Ġphotos": 5928,
      "Ġframe": 5929,
      "Ġconsequences": 5930,
      "ĠVietnam": 5931,
      "Cont": 5932,
      "bing": 5933,
      "Ġbatter": 5934,
      "Ġlas": 5935,
      "Ġanx": 5936,
      "ocation": 5937,
      "ĠLittle": 5938,
      "Ġprem": 5939,
      "Ġrail": 5940,
      "Ġadding": 5941,
      "Ġremaining": 5942,
      "Ġhelpful": 5943,
      "Ġlesson": 5944,
      "Ġdomestic": 5945,
      "Ġdebate": 5946,
      "Ġstruggle": 5947,
      "ĠVictor": 5948,
      "01": 5949,
      "rary": 5950,
      "ss": 5951,
      "under": 5952,
      "Ġmix": 5953,
      "Ġgender": 5954,
      "oting": 5955,
      "ĠPop": 5956,
      "osph": 5957,
      "Ġenforce": 5958,
      "Ġteeth": 5959,
      "Ġrecip": 5960,
      "Ġdepends": 5961,
      "Ġexplains": 5962,
      "Ġgenerate": 5963,
      "incoln": 5964,
      "Ġcolleagues": 5965,
      "Ġhorse": 5966,
      "Ġhoriz": 5967,
      "Ġpretty": 5968,
      "95": 5969,
      ":||": 5970,
      "upp": 5971,
      "esis": 5972,
      "isters": 5973,
      "oto": 5974,
      "Ġadequ": 5975,
      "Ġunknown": 5976,
      "Ġregist": 5977,
      "Ġperspective": 5978,
      "Ġvisible": 5979,
      "Ġcounsel": 5980,
      "Ġinsects": 5981,
      "ĠDirector": 5982,
      "wing": 5983,
      "rep": 5984,
      "Ġsections": 5985,
      "ican": 5986,
      "ĠSaf": 5987,
      "Ġwhales": 5988,
      "Ġlect": 5989,
      "Ġuniverse": 5990,
      "ĠStat": 5991,
      "Ġoutl": 5992,
      "Ġcrew": 5993,
      "Ġcontrols": 5994,
      "Ġerr": 5995,
      "Ġimmun": 5996,
      "ascular": 5997,
      "Ġecosystem": 5998,
      "ĠRichard": 5999,
      "Ġcandid": 6000,
      "Ġcircumst": 6001,
      "PS": 6002,
      "long": 6003,
      "rine": 6004,
      "ĠNor": 6005,
      "Ġchann": 6006,
      "Ġdefe": 6007,
      "Ġembry": 6008,
      "Ġgirls": 6009,
      "ĠChicago": 6010,
      "des": 6011,
      "rative": 6012,
      "inn": 6013,
      "alination": 6014,
      "Ġinner": 6015,
      "asks": 6016,
      "Ġnest": 6017,
      "ocument": 6018,
      "Ġneither": 6019,
      "Ġenvironments": 6020,
      "oking": 6021,
      "Ġsurf": 6022,
      "Ġexamine": 6023,
      "Ġ1992": 6024,
      "Ġminim": 6025,
      "Ġpossibly": 6026,
      "nedy": 6027,
      "Ġnegot": 6028,
      "Dr": 6029,
      "Ġaw": 6030,
      "iner": 6031,
      "rob": 6032,
      "irth": 6033,
      "ĠProp": 6034,
      "abled": 6035,
      "ĠWall": 6036,
      "Ġchapter": 6037,
      "teen": 6038,
      "Ġdefense": 6039,
      "Ġsimpl": 6040,
      "anguage": 6041,
      "Ġsentence": 6042,
      "Ġinterpre": 6043,
      "Ġapart": 6044,
      "Ġleadership": 6045,
      "Ġarrived": 6046,
      "06": 6047,
      "Med": 6048,
      "Ġlov": 6049,
      "acters": 6050,
      "agers": 6051,
      "Ġcontribute": 6052,
      "Ġcomposition": 6053,
      "Ġclick": 6054,
      "Ġappreci": 6055,
      "Ġeditor": 6056,
      "cling": 6057,
      "Ġsolutions": 6058,
      "steroid": 6059,
      "Ġclaimed": 6060,
      "Ġrecognize": 6061,
      "ceeded": 6062,
      "ĠRevolution": 6063,
      "Ġinstrument": 6064,
      "43": 6065,
      "CT": 6066,
      "run": 6067,
      "Ġcatch": 6068,
      "Ġpig": 6069,
      "Ġinhib": 6070,
      "Ġdioxide": 6071,
      "Ġles": 6072,
      "ĠMel": 6073,
      "oples": 6074,
      "Ġcomfort": 6075,
      "ĠGrand": 6076,
      "Ġarrest": 6077,
      "Ġswim": 6078,
      "Ġresponses": 6079,
      "Ġ1960": 6080,
      "Ġimmig": 6081,
      "Ġintroduction": 6082,
      "Ġforests": 6083,
      "Ġroute": 6084,
      "ĠInstead": 6085,
      "heimer": 6086,
      "Se": 6087,
      "free": 6088,
      "zil": 6089,
      "Ġsail": 6090,
      "Ġmand": 6091,
      "imens": 6092,
      "ĠIr": 6093,
      "ĠBC": 6094,
      "ĠRem": 6095,
      "Ġ500": 6096,
      "Ġautism": 6097,
      "Ġelev": 6098,
      "ployment": 6099,
      "Ġindicates": 6100,
      "Ġmoral": 6101,
      "ĠControl": 6102,
      "ĠSecret": 6103,
      "IDS": 6104,
      "Ġdivision": 6105,
      "Ġsediment": 6106,
      "Ġconventional": 6107,
      "IL": 6108,
      "eenth": 6109,
      "hand": 6110,
      "Ġpull": 6111,
      "ĠAgency": 6112,
      "Ġstock": 6113,
      "Ġprove": 6114,
      "Ġsud": 6115,
      "Ġrid": 6116,
      "Ġdoi": 6117,
      "Ġconscious": 6118,
      "Ġcenters": 6119,
      "Ġmyth": 6120,
      "Ġslaves": 6121,
      "Ġmarked": 6122,
      "Ġdecrease": 6123,
      "Ġscholars": 6124,
      "Ġequivalent": 6125,
      "Ġplatform": 6126,
      "mas": 6127,
      "rete": 6128,
      "Ġinject": 6129,
      "Ġnone": 6130,
      "ĠPan": 6131,
      "ĠWil": 6132,
      "ĠEnd": 6133,
      "Ġrh": 6134,
      "earchers": 6135,
      "Ġweap": 6136,
      "ĠOnly": 6137,
      "ĠParis": 6138,
      "Ġderived": 6139,
      "Ġmobile": 6140,
      "89": 6141,
      "Ġing": 6142,
      "sts": 6143,
      "umps": 6144,
      "ocracy": 6145,
      "Ġchain": 6146,
      "Ġsports": 6147,
      "Ġshared": 6148,
      "cium": 6149,
      "Ġroll": 6150,
      "Ġacres": 6151,
      "Ġmode": 6152,
      "Ġextended": 6153,
      "hips": 6154,
      "Ġconfir": 6155,
      "Ġmatters": 6156,
      "Ġopening": 6157,
      "Ġfacilit": 6158,
      "ĠBoard": 6159,
      "Ġmeasurements": 6160,
      "Ġrevealed": 6161,
      "Ġmerely": 6162,
      "85": 6163,
      "ait": 6164,
      "dis": 6165,
      "gov": 6166,
      "Ġfract": 6167,
      "Ġalg": 6168,
      "ĠBur": 6169,
      "Ġdescribes": 6170,
      "Ġnetworks": 6171,
      "ĠGoogle": 6172,
      "Ġregularly": 6173,
      "ĠWildlife": 6174,
      "?\"": 6175,
      "Last": 6176,
      "power": 6177,
      "Ġtons": 6178,
      "Ġaqu": 6179,
      "othe": 6180,
      "Ġforth": 6181,
      "ĠIP": 6182,
      "ĠRoyal": 6183,
      "ĠFree": 6184,
      "Ġchromos": 6185,
      "Ġspend": 6186,
      "ĠOh": 6187,
      "âĢĿ,": 6188,
      "Ġcommitted": 6189,
      "Ġentered": 6190,
      "Ġstring": 6191,
      "Ġdirected": 6192,
      "Ġguidelines": 6193,
      "ĠExper": 6194,
      "Ġsuccessfully": 6195,
      "Ġlisten": 6196,
      "Ġgrass": 6197,
      "rastructure": 6198,
      "Ġpowers": 6199,
      "ĠSpecial": 6200,
      "Rec": 6201,
      "inos": 6202,
      "Ġsan": 6203,
      "Ġdiversity": 6204,
      "ĠAst": 6205,
      "irds": 6206,
      "ĠMac": 6207,
      "ĠLike": 6208,
      "Ġworse": 6209,
      "Ġreserv": 6210,
      "Ġflight": 6211,
      "Ġtaxes": 6212,
      "html": 6213,
      "ĠKennedy": 6214,
      "Ġsituations": 6215,
      "ĠAtlantic": 6216,
      "ĠEr": 6217,
      "ĠLincoln": 6218,
      "ĠOut": 6219,
      "Ġsurve": 6220,
      "Ġreform": 6221,
      "Ġwriters": 6222,
      "Ġoperate": 6223,
      "Ġachieved": 6224,
      "Ġtells": 6225,
      "Ġspeaking": 6226,
      "Ġdemonstrated": 6227,
      "Ġawareness": 6228,
      "opyright": 6229,
      "Ġvulner": 6230,
      "Ġlaunched": 6231,
      "65": 6232,
      "net": 6233,
      "produ": 6234,
      "Ġath": 6235,
      "Ġvoice": 6236,
      "ĠDi": 6237,
      "Ġchosen": 6238,
      "Ġspin": 6239,
      "Ġmanaged": 6240,
      "Ġrising": 6241,
      "Ġinvestment": 6242,
      "ĠGuide": 6243,
      "ĠConservation": 6244,
      "Ġmountain": 6245,
      "Ġaccurate": 6246,
      "Ġhonor": 6247,
      "Ġphilosophy": 6248,
      "Ġsudden": 6249,
      "41": 6250,
      "73": 6251,
      "Ġmath": 6252,
      "Ġstreet": 6253,
      "using": 6254,
      "ocy": 6255,
      "ogue": 6256,
      "Ġimper": 6257,
      "Ġmanif": 6258,
      "Ġagreed": 6259,
      "Ġinterview": 6260,
      "Ġideal": 6261,
      "Ġdeliver": 6262,
      "Ġgrew": 6263,
      "Ġinteraction": 6264,
      "ĠUsing": 6265,
      ")||": 6266,
      "bar": 6267,
      "cul": 6268,
      "Ġpra": 6269,
      "Ġhus": 6270,
      "Ġepidem": 6271,
      "ĠRome": 6272,
      "ĠGold": 6273,
      "Ġmanip": 6274,
      "ĠVer": 6275,
      "Ġsomewhat": 6276,
      "Ġages": 6277,
      "Ġ400": 6278,
      "Ġ75": 6279,
      "Ġglass": 6280,
      "Ġvaluable": 6281,
      "Ġfewer": 6282,
      "Ġlateral": 6283,
      "Ġpolitics": 6284,
      "Ġassociation": 6285,
      "while": 6286,
      "Ġfishing": 6287,
      "Ġsuperior": 6288,
      "ĠParty": 6289,
      "Ġframework": 6290,
      "Ġjoin": 6291,
      "Ġhypothes": 6292,
      "________": 6293,
      "ĠAvoid": 6294,
      "ĠNetwork": 6295,
      "Ġenhance": 6296,
      "04": 6297,
      "En": 6298,
      "bec": 6299,
      "gent": 6300,
      "Ġwave": 6301,
      "icks": 6302,
      "ĠTem": 6303,
      "terior": 6304,
      "Ġcomments": 6305,
      "ĠEc": 6306,
      "Ġpoison": 6307,
      "Ġscene": 6308,
      "Ġsets": 6309,
      "ĠAny": 6310,
      "Ġdepression": 6311,
      "Ġinvolving": 6312,
      "apping": 6313,
      "ĠAbout": 6314,
      "ĠManagement": 6315,
      "Ġcompetition": 6316,
      "Ġvehicles": 6317,
      "ĠSouthern": 6318,
      "99": 6319,
      "EP": 6320,
      "IG": 6321,
      "My": 6322,
      "hist": 6323,
      "Ġcert": 6324,
      "adel": 6325,
      "ĠWood": 6326,
      "quit": 6327,
      "ĠOs": 6328,
      "peror": 6329,
      "Ġ32": 6330,
      "prise": 6331,
      "Ġfalse": 6332,
      "ĠJoseph": 6333,
      "Re": 6334,
      "Ġdrought": 6335,
      "ĠTime": 6336,
      "ĠIN": 6337,
      "Ġstret": 6338,
      "Ġunus": 6339,
      "Ġamb": 6340,
      "Ġsupplement": 6341,
      "Ġmedications": 6342,
      "arsh": 6343,
      "Ġelectron": 6344,
      "Ġannounced": 6345,
      "Ġrivers": 6346,
      "Ġlose": 6347,
      "ĠCat": 6348,
      "Ġmetab": 6349,
      "Ġstands": 6350,
      "espread": 6351,
      "Ġreactions": 6352,
      "Ġmechanisms": 6353,
      "ĠAustralian": 6354,
      "Ġdeclared": 6355,
      "Ġconstructed": 6356,
      "Ġvessels": 6357,
      "Ġdollars": 6358,
      "las": 6359,
      "Ġtaught": 6360,
      "Ġfasc": 6361,
      "rier": 6362,
      "ĠExt": 6363,
      "ansas": 6364,
      "Ġsole": 6365,
      "Ġtrain": 6366,
      "ificial": 6367,
      "Ġexpansion": 6368,
      "Ġcarefully": 6369,
      "Ġruns": 6370,
      "Ġdelay": 6371,
      "Ġemployed": 6372,
      "Ġquarter": 6373,
      "Ġaf": 6374,
      "Ġpark": 6375,
      "ĠLar": 6376,
      "Ġcontamin": 6377,
      "Ġnoise": 6378,
      "inking": 6379,
      "Ġflag": 6380,
      "Ġdeaths": 6381,
      "Ġcircle": 6382,
      "Ġparticipate": 6383,
      "ĠMuslims": 6384,
      "ĠBrazil": 6385,
      "ĠPortug": 6386,
      ",'": 6387,
      "May": 6388,
      "mitted": 6389,
      "ĠCult": 6390,
      "eline": 6391,
      "estine": 6392,
      "ĠLand": 6393,
      "Ġenable": 6394,
      "Ġamino": 6395,
      "Ġchildhood": 6396,
      "Ġremote": 6397,
      "Ġdefic": 6398,
      "Ġstudying": 6399,
      "Ġexplo": 6400,
      "Ġlegs": 6401,
      "Ġyounger": 6402,
      "Ġconsumers": 6403,
      "Ġholding": 6404,
      "Ġafford": 6405,
      "Ġcaptured": 6406,
      "Ġagreement": 6407,
      "Ġagriculture": 6408,
      "ĠFrancisco": 6409,
      "xts": 6410,
      "zed": 6411,
      "Ã³": 6412,
      "Ġcup": 6413,
      "Ġwish": 6414,
      "Ġwitness": 6415,
      "roat": 6416,
      "rovers": 6417,
      "Ġlake": 6418,
      "usal": 6419,
      "Ġneck": 6420,
      "ĠOF": 6421,
      "Ġcommittee": 6422,
      "ensions": 6423,
      "ifications": 6424,
      "Ġlocations": 6425,
      "ipping": 6426,
      "Ġvehicle": 6427,
      "Pe": 6428,
      "body": 6429,
      "iy": 6430,
      "word": 6431,
      "Ġpapers": 6432,
      "Ġfilled": 6433,
      "icide": 6434,
      "ĠAM": 6435,
      "ĠSand": 6436,
      "erent": 6437,
      "Ġabund": 6438,
      "outs": 6439,
      "igned": 6440,
      "Ġintervention": 6441,
      "Ġcars": 6442,
      "eek": 6443,
      "Ġcharacters": 6444,
      "Ġgenerations": 6445,
      "comes": 6446,
      "Ġrestrict": 6447,
      "Ġdifficulty": 6448,
      "Ġinjuries": 6449,
      "Ġjudge": 6450,
      "ĠAgricult": 6451,
      "Ġultimately": 6452,
      "Ġbutterf": 6453,
      "SS": 6454,
      "born": 6455,
      "Ġ*": 6456,
      "Ġsell": 6457,
      "lets": 6458,
      "asp": 6459,
      "Ġhun": 6460,
      "ĠSol": 6461,
      "ĠMad": 6462,
      "Ġseed": 6463,
      "earing": 6464,
      "Ġdoor": 6465,
      "Ġcommission": 6466,
      "ĠItalian": 6467,
      "teb": 6468,
      "Ġaccum": 6469,
      "Ġregulations": 6470,
      "Ġdecide": 6471,
      "Ġsecure": 6472,
      "Ġstanding": 6473,
      "Why": 6474,
      "Ġengaged": 6475,
      "Ġplaying": 6476,
      "Ġaccounts": 6477,
      "Ġburning": 6478,
      "Ġcoastal": 6479,
      "ĠMartin": 6480,
      "adelph": 6481,
      "BS": 6482,
      "hma": 6483,
      "yal": 6484,
      "Ġille": 6485,
      "Ġaward": 6486,
      "uter": 6487,
      "Ġye": 6488,
      "tery": 6489,
      "ibilities": 6490,
      "Ġmanage": 6491,
      "Ġinsurance": 6492,
      "Ġelections": 6493,
      "udej": 6494,
      "Ġzone": 6495,
      "Ġfemales": 6496,
      "Ġestimates": 6497,
      "Ġfighting": 6498,
      "Ġprisoners": 6499,
      "Ġexplanation": 6500,
      "74": 6501,
      "flow": 6502,
      "gu": 6503,
      "mond": 6504,
      "Ġsight": 6505,
      "Ġsought": 6506,
      "Ġcos": 6507,
      "Ġwel": 6508,
      "Ġfill": 6509,
      "Ġrecept": 6510,
      "Ġbear": 6511,
      "Ġexists": 6512,
      "ĠData": 6513,
      "ĠUp": 6514,
      "agn": 6515,
      "Ġrecovery": 6516,
      "Ġagents": 6517,
      "Ġinvent": 6518,
      "Ġdefine": 6519,
      "Ġdepart": 6520,
      "Ġ1996": 6521,
      "Ġpublication": 6522,
      "Stud": 6523,
      "Ġcrime": 6524,
      "ometers": 6525,
      "Ġmolecular": 6526,
      "burg": 6527,
      "Ġantibiot": 6528,
      "Ġterritory": 6529,
      "cus": 6530,
      "Ġends": 6531,
      "Ġcomposed": 6532,
      "ĠKar": 6533,
      "Ġwriter": 6534,
      "Ġpassage": 6535,
      "ĠUSA": 6536,
      "Ġmicros": 6537,
      "Ġinteractions": 6538,
      "Ġcontemporary": 6539,
      "itudes": 6540,
      "\")": 6541,
      "79": 6542,
      "cription": 6543,
      "tic": 6544,
      "zheimer": 6545,
      "ena": 6546,
      "Ġgather": 6547,
      "ĠWik": 6548,
      "ĠEp": 6549,
      "ults": 6550,
      "Ġresident": 6551,
      "Ġunable": 6552,
      "Ġuniversity": 6553,
      "Ġdesalination": 6554,
      "Ġfoundation": 6555,
      "Ġedition": 6556,
      "Ġprotocol": 6557,
      "Ġcourses": 6558,
      "Ġgenerated": 6559,
      "Ġcorpor": 6560,
      "Ġslavery": 6561,
      "Ġnearby": 6562,
      "ĠResources": 6563,
      "Ġopposite": 6564,
      "Ġsuffer": 6565,
      "Ġprepare": 6566,
      "Ġcarrying": 6567,
      "ĠIslamic": 6568,
      "Ġcriminal": 6569,
      "adelphia": 6570,
      "First": 6571,
      "Or": 6572,
      "car": 6573,
      "Ġov": 6574,
      "Ġlit": 6575,
      "utch": 6576,
      "ĠMS": 6577,
      "ĠMudej": 6578,
      "Ġ(\"": 6579,
      "ĠRab": 6580,
      "ĠNov": 6581,
      "ricts": 6582,
      "Ġattend": 6583,
      "Ġscar": 6584,
      "ĠSeattle": 6585,
      "Ġparas": 6586,
      "Ġmagnetic": 6587,
      "Ġinstitution": 6588,
      "Ġcooling": 6589,
      "Ġrarely": 6590,
      "Ġtouch": 6591,
      "ĠLearning": 6592,
      "Ġparallel": 6593,
      "Ġfurn": 6594,
      "arant": 6595,
      "Ġnob": 6596,
      "etary": 6597,
      "ĠCard": 6598,
      "andon": 6599,
      "ĠLiter": 6600,
      "Ġuns": 6601,
      "ounded": 6602,
      "Ġremind": 6603,
      "Ġcentre": 6604,
      "Ġprovider": 6605,
      "Ġphysics": 6606,
      "ĠChristians": 6607,
      "ditional": 6608,
      "Ġdriving": 6609,
      "Ġofficers": 6610,
      "Ġvaccine": 6611,
      "ochond": 6612,
      "Ġwidespread": 6613,
      "ĠKorea": 6614,
      "Ġingred": 6615,
      "?âĢĿ": 6616,
      "IP": 6617,
      "aud": 6618,
      "mail": 6619,
      "rants": 6620,
      "orter": 6621,
      "Ġdiam": 6622,
      "Ġlie": 6623,
      "ether": 6624,
      "Ġwhatever": 6625,
      "ĠBre": 6626,
      "ĠDu": 6627,
      "ĠDou": 6628,
      "Ġsharing": 6629,
      "Ġpeoples": 6630,
      "Ġdefend": 6631,
      "Ġmyster": 6632,
      "Ġapproved": 6633,
      "Ġsecondary": 6634,
      "Ġfacility": 6635,
      "Ġcalcium": 6636,
      "Ġhistoric": 6637,
      "Ġfrequent": 6638,
      "Ġcomparison": 6639,
      "'d": 6640,
      ".]": 6641,
      "66": 6642,
      "Over": 6643,
      "ek": 6644,
      "lv": 6645,
      "ua": 6646,
      "Ġtal": 6647,
      "Ġinher": 6648,
      "Ġnose": 6649,
      "ĠMer": 6650,
      "isted": 6651,
      "emb": 6652,
      "ĠFour": 6653,
      "Ġcloud": 6654,
      "Ġproved": 6655,
      "Ġregul": 6656,
      "Ġscan": 6657,
      "ĠAsian": 6658,
      "Ġsmooth": 6659,
      "Ġsigned": 6660,
      "ĠAlzheimer": 6661,
      "Ġseemed": 6662,
      "ĠScott": 6663,
      "ĠGeorg": 6664,
      "Ġwindow": 6665,
      "Ġcouncil": 6666,
      "Ġgranted": 6667,
      "Ġfertil": 6668,
      ")|": 6669,
      "Ġble": 6670,
      "Ġthor": 6671,
      "sey": 6672,
      "Ġgun": 6673,
      "ĠPC": 6674,
      "ĠBill": 6675,
      "osion": 6676,
      "bert": 6677,
      "ishop": 6678,
      "Ġremark": 6679,
      "Ġcommunications": 6680,
      "Ġshell": 6681,
      "Ġsupports": 6682,
      "Ġlabel": 6683,
      "Ġtowns": 6684,
      "Ġcircumstances": 6685,
      "Since": 6686,
      "fortunately": 6687,
      "anes": 6688,
      "omer": 6689,
      "umes": 6690,
      "ĠHospital": 6691,
      "ĠUt": 6692,
      "Ġdischar": 6693,
      "Ġinches": 6694,
      "ĠStep": 6695,
      "Ġinfrastructure": 6696,
      "Ġcolumn": 6697,
      "Ġacids": 6698,
      "ventions": 6699,
      "Ġbreeding": 6700,
      "Ġsignificance": 6701,
      "Ġintegrated": 6702,
      "Ġmanufacturing": 6703,
      "Ġbudget": 6704,
      "08": 6705,
      "Do": 6706,
      "then": 6707,
      "Ġfixed": 6708,
      "Ġstorm": 6709,
      "ighter": 6710,
      "Ġdisabilities": 6711,
      "Ġ1950": 6712,
      "Ġclin": 6713,
      "Ġoverl": 6714,
      "Ġknows": 6715,
      "Ġgrade": 6716,
      "Ġowner": 6717,
      "Ġaudio": 6718,
      "Ġsoldiers": 6719,
      "Ġobtain": 6720,
      "Ġwalking": 6721,
      "Ġcryst": 6722,
      "ĠDistrict": 6723,
      "Ġlandscape": 6724,
      "ĠAdministration": 6725,
      "iop": 6726,
      "oir": 6727,
      "Ġol": 6728,
      "Ġcoc": 6729,
      "Ġpush": 6730,
      "Ġft": 6731,
      "omach": 6732,
      "stone": 6733,
      "Ġgay": 6734,
      "Ġsuitable": 6735,
      "Ġneut": 6736,
      "Ġchlor": 6737,
      "Ġabandon": 6738,
      "Ġintake": 6739,
      "Ġplate": 6740,
      "Ġcompris": 6741,
      "Ġentry": 6742,
      "Ġcourts": 6743,
      "Ġmarried": 6744,
      "Ġphoto": 6745,
      "Ġconsiderable": 6746,
      "Ġassigned": 6747,
      "Ġmedicines": 6748,
      "how": 6749,
      "pan": 6750,
      "herent": 6751,
      "Ġpou": 6752,
      "edu": 6753,
      "Ġbrand": 6754,
      "Ġfisher": 6755,
      "Ġmoon": 6756,
      "Ġdream": 6757,
      "Ġconclusion": 6758,
      "ĠGulf": 6759,
      "ulty": 6760,
      "Ġproduces": 6761,
      "everal": 6762,
      "Ġopposition": 6763,
      "Ġengage": 6764,
      "Ġcreates": 6765,
      "Ġgreenhouse": 6766,
      "Ġstrike": 6767,
      "ĠPhiladelphia": 6768,
      "Ġcloser": 6769,
      "71": 6770,
      "Can": 6771,
      "LA": 6772,
      "rigation": 6773,
      "hered": 6774,
      "esity": 6775,
      "Ġmild": 6776,
      "ĠSign": 6777,
      "ĠHaw": 6778,
      "Ġcontrovers": 6779,
      "Ġprovince": 6780,
      "icted": 6781,
      "Ġmeters": 6782,
      "Ġmarkets": 6783,
      "Ġputting": 6784,
      "Ġinvestigation": 6785,
      "scale": 6786,
      "Ġdestruction": 6787,
      "Ġkiller": 6788,
      "Ġlaid": 6789,
      "ĠCoast": 6790,
      "Ġimplementation": 6791,
      "Ġethnic": 6792,
      "ĠObama": 6793,
      "cribed": 6794,
      "Ġdedicated": 6795,
      "Ġtall": 6796,
      "indu": 6797,
      "Ġwants": 6798,
      "alysis": 6799,
      "Ġbio": 6800,
      "Ġinternet": 6801,
      "iller": 6802,
      "Ġwasn": 6803,
      "ocial": 6804,
      "Ġshift": 6805,
      "ĠJon": 6806,
      "Ġcontained": 6807,
      "aked": 6808,
      "ĠThrough": 6809,
      "Ġtexts": 6810,
      "hemical": 6811,
      "Ġreaders": 6812,
      "Ġopposed": 6813,
      "ĠEncyclopedia": 6814,
      "Ġterror": 6815,
      "Ġimproving": 6816,
      "Ġaccessible": 6817,
      "print": 6818,
      "Ġdrawn": 6819,
      "Ġconsistent": 6820,
      "ulsion": 6821,
      "Ġtribes": 6822,
      "ĠSurvey": 6823,
      "Ġuniversal": 6824,
      "Ġsweet": 6825,
      "ixture": 6826,
      "ĠDesign": 6827,
      "ĠAlexander": 6828,
      "Ġscheme": 6829,
      "Ġmoisture": 6830,
      "hyd": 6831,
      "Ġasteroid": 6832,
      "Ġmice": 6833,
      "Ġdrain": 6834,
      "ols": 6835,
      "raq": 6836,
      "ĠId": 6837,
      "ĠDet": 6838,
      "Ġseeds": 6839,
      "ĠGard": 6840,
      "unicip": 6841,
      "ograp": 6842,
      "Ġabnormal": 6843,
      "Ġwilling": 6844,
      "Ġunion": 6845,
      "ĠItaly": 6846,
      "weight": 6847,
      "ypes": 6848,
      "Ġcurriculum": 6849,
      "Ġminute": 6850,
      "ashion": 6851,
      "Ġspacecraft": 6852,
      "Ġturns": 6853,
      "Ġregarded": 6854,
      "Ġtransportation": 6855,
      "Ġconcluded": 6856,
      "uilding": 6857,
      "98": 6858,
      "Even": 6859,
      "TA": 6860,
      "fish": 6861,
      "ivery": 6862,
      "iability": 6863,
      "Ġeld": 6864,
      "uts": 6865,
      "irt": 6866,
      "ĠMah": 6867,
      "Ġrig": 6868,
      "Ġcompounds": 6869,
      "iana": 6870,
      "anging": 6871,
      "ĠVit": 6872,
      "Ġobst": 6873,
      "Ġdepartment": 6874,
      "ĠIndones": 6875,
      "Ġchest": 6876,
      "Ġpainting": 6877,
      "Ġordered": 6878,
      "ĠMalays": 6879,
      "Ġsacr": 6880,
      "Ġbranch": 6881,
      "Ġarchitecture": 6882,
      "ĠOhio": 6883,
      "72": 6884,
      "CS": 6885,
      "Ġcognitive": 6886,
      "ĠAccess": 6887,
      "ĠCamp": 6888,
      "Ġexchange": 6889,
      "ĠâĢ¦": 6890,
      "ĠStar": 6891,
      "Ġextend": 6892,
      "Ġdistur": 6893,
      "Ġseeing": 6894,
      "Ġstatements": 6895,
      "2012": 6896,
      "Ġslave": 6897,
      "ĠExpl": 6898,
      "Ġtruly": 6899,
      "ippi": 6900,
      "ĠEdward": 6901,
      "Ġisolated": 6902,
      "Ġcluster": 6903,
      "but": 6904,
      "host": 6905,
      "pet": 6906,
      "Ġtips": 6907,
      "onia": 6908,
      "Ġpit": 6909,
      "Ġbomb": 6910,
      "ano": 6911,
      "asters": 6912,
      "ĠTop": 6913,
      "etime": 6914,
      "raham": 6915,
      "ĠSym": 6916,
      "ĠRom": 6917,
      "Ġuniform": 6918,
      "Ġguarant": 6919,
      "Ġcombat": 6920,
      "Ġrepresentation": 6921,
      "Ġbiggest": 6922,
      "Ġvillages": 6923,
      "Ġescape": 6924,
      "Ġhazard": 6925,
      "Ġearthquake": 6926,
      "Ġsurfaces": 6927,
      "Figure": 6928,
      "Go": 6929,
      "Of": 6930,
      "Qu": 6931,
      "Us": 6932,
      "mary": 6933,
      "Ġmixed": 6934,
      "Ġdiverse": 6935,
      "Ġrein": 6936,
      "stract": 6937,
      "Ġnerv": 6938,
      "urrent": 6939,
      "ĠSat": 6940,
      "igan": 6941,
      "Ġstomach": 6942,
      "Ġorb": 6943,
      "ĠBank": 6944,
      "Ġrank": 6945,
      "ella": 6946,
      "ĠChapter": 6947,
      "Ġwhereas": 6948,
      "Ġestimate": 6949,
      "Ġscientist": 6950,
      "ĠEarly": 6951,
      "Ġindicated": 6952,
      "chez": 6953,
      "ĠSupp": 6954,
      "Ġpermission": 6955,
      "nesota": 6956,
      "Ġfruits": 6957,
      "Ġbanks": 6958,
      "Ġfairly": 6959,
      "Ġphenomenon": 6960,
      "42": 6961,
      "Ġlymph": 6962,
      "osh": 6963,
      "Ġspir": 6964,
      "iah": 6965,
      "ĠOk": 6966,
      "osex": 6967,
      "Ġpref": 6968,
      "Ġcovers": 6969,
      "ĠWho": 6970,
      "Ġthoughts": 6971,
      "Ġzero": 6972,
      "Ġthreatened": 6973,
      "Ġdigest": 6974,
      "ĠEgyptian": 6975,
      "Ġprincipal": 6976,
      "Ġbreathing": 6977,
      "igenous": 6978,
      "Ġfibers": 6979,
      "ĠColorado": 6980,
      "Bl": 6981,
      "uber": 6982,
      "ugg": 6983,
      "inates": 6984,
      "Ġske": 6985,
      "Ġbeds": 6986,
      "Ġinert": 6987,
      "ĠSup": 6988,
      "Ġproof": 6989,
      "istent": 6990,
      "ivated": 6991,
      "acts": 6992,
      "ĠThree": 6993,
      "Ġpreced": 6994,
      "issippi": 6995,
      "Ġtransition": 6996,
      "Ġsignals": 6997,
      "Ġplanets": 6998,
      "Ġparam": 6999,
      "Ġcriteria": 7000,
      "Ġholds": 7001,
      "Ġsuffering": 7002,
      "Ġkingdom": 7003,
      "Ġtalking": 7004,
      "Ġdependent": 7005,
      "Ġbegun": 7006,
      "Ġarrange": 7007,
      "69": 7008,
      "Ed": 7009,
      "MS": 7010,
      "top": 7011,
      "Ġtheore": 7012,
      "Ġwaves": 7013,
      "itarian": 7014,
      "Ġmaps": 7015,
      "Ġstrict": 7016,
      "ĠMot": 7017,
      "operation": 7018,
      "Ġusage": 7019,
      "plant": 7020,
      "Ġkit": 7021,
      "Ġoutbre": 7022,
      "Ġprev": 7023,
      "ĠKnow": 7024,
      "Ġroyal": 7025,
      "Ġundert": 7026,
      "Ġscript": 7027,
      "tenance": 7028,
      "Ġfeeding": 7029,
      "Ġplanned": 7030,
      "Ġhandle": 7031,
      "Ġofficer": 7032,
      "Ġcreative": 7033,
      "rolled": 7034,
      "ĠStudy": 7035,
      "Ġviruses": 7036,
      "Ġsenior": 7037,
      "',": 7038,
      "'.": 7039,
      "Int": 7040,
      "John": 7041,
      "gs": 7042,
      "rite": 7043,
      "Ġcited": 7044,
      "Ġcodes": 7045,
      "Ġmail": 7046,
      "Ġgained": 7047,
      "eters": 7048,
      "ette": 7049,
      "Ġstre": 7050,
      "ĠPolic": 7051,
      "orted": 7052,
      "Ġnotion": 7053,
      "Ġshif": 7054,
      "ags": 7055,
      "Ġdistricts": 7056,
      "theless": 7057,
      "Ġmatch": 7058,
      "Ġseconds": 7059,
      "Ġoptical": 7060,
      "Ġinteractive": 7061,
      "Ġdiagnosed": 7062,
      "Ġvisitors": 7063,
      "Ġconcentrations": 7064,
      "ĠPrince": 7065,
      "Ġfulf": 7066,
      "Ġvariable": 7067,
      "Ġinstructions": 7068,
      "Ġmathematics": 7069,
      "Ġvictims": 7070,
      "Ġnitrogen": 7071,
      "BI": 7072,
      "Le": 7073,
      "aired": 7074,
      "gans": 7075,
      "Ġtaste": 7076,
      "ester": 7077,
      "Ġpounds": 7078,
      "alm": 7079,
      "Ġbeat": 7080,
      "ady": 7081,
      "Ġconven": 7082,
      "Ġyield": 7083,
      "Ġoral": 7084,
      "Ġalter": 7085,
      "achers": 7086,
      "ĠDictionary": 7087,
      "ĠGree": 7088,
      "Ġassume": 7089,
      "Ġ65": 7090,
      "lishing": 7091,
      "Ġpassing": 7092,
      "ĠEngine": 7093,
      "Ġseparated": 7094,
      "ĠÂ©": 7095,
      "Ġturning": 7096,
      "Ġemotions": 7097,
      "Ġaccuracy": 7098,
      "Ġexpanded": 7099,
      "Ġmelan": 7100,
      "ĠPMID": 7101,
      "Ġhusband": 7102,
      "TS": 7103,
      "bour": 7104,
      "gical": 7105,
      "ato": 7106,
      "itual": 7107,
      "osc": 7108,
      "Ġdisk": 7109,
      "Ġconserv": 7110,
      "Ġdesire": 7111,
      "Ġrow": 7112,
      "Ġartists": 7113,
      "Ġended": 7114,
      "Ġboys": 7115,
      "Ġservers": 7116,
      "Ġequally": 7117,
      "Ġparad": 7118,
      "Ġveter": 7119,
      "Ġprophe": 7120,
      "Ġcultures": 7121,
      "ditionally": 7122,
      "Ġhappy": 7123,
      "Ġvolcan": 7124,
      "Ġflower": 7125,
      "Ġessay": 7126,
      "Ġessentially": 7127,
      "Ġrecognition": 7128,
      "Ġattempts": 7129,
      "Ġcomplicated": 7130,
      "Ġroutine": 7131,
      "ĠMississippi": 7132,
      "commun": 7133,
      "ĠDisease": 7134,
      "ĠOxford": 7135,
      "].": 7136,
      "Ġ^": 7137,
      "Ġmercury": 7138,
      "Ġongoing": 7139,
      "ĠPlease": 7140,
      "ĠBureau": 7141,
      "rous": 7142,
      "ĠJac": 7143,
      "Ġplays": 7144,
      "agon": 7145,
      "Ġwheat": 7146,
      "ressive": 7147,
      "Ġrose": 7148,
      "angered": 7149,
      "Ġcommunicate": 7150,
      "Ġdownload": 7151,
      "ĠMinnesota": 7152,
      "Ġsuffered": 7153,
      "ĠObject": 7154,
      "Ġcrucial": 7155,
      "Ġbehaviors": 7156,
      "Ġratio": 7157,
      "ĠLaboratory": 7158,
      "Comp": 7159,
      "making": 7160,
      "uels": 7161,
      "Ġtasks": 7162,
      "erals": 7163,
      "onents": 7164,
      "Ġsession": 7165,
      "asive": 7166,
      "ĠCross": 7167,
      "Ġstable": 7168,
      "Ġstages": 7169,
      "ĠEPA": 7170,
      "ĠForm": 7171,
      "Ġspok": 7172,
      "Ġintense": 7173,
      "ipedia": 7174,
      "Ġthereby": 7175,
      "Ġtract": 7176,
      "Ġinterior": 7177,
      "Ġpatent": 7178,
      "Ġmechanical": 7179,
      "Ġmessages": 7180,
      "Ġbullying": 7181,
      "Ġlegislation": 7182,
      "Ġinstruments": 7183,
      "Ġsubstantial": 7184,
      "Ġprofessionals": 7185,
      "Ġmanifest": 7186,
      "Ġcav": 7187,
      "orous": 7188,
      "Ġfed": 7189,
      "Ġbeings": 7190,
      "olt": 7191,
      "ĠIraq": 7192,
      "Ġconqu": 7193,
      "ĠNative": 7194,
      "Ġpharm": 7195,
      "Ġadds": 7196,
      "Ġhumidity": 7197,
      "Ġdefects": 7198,
      "Ġhealthcare": 7199,
      "Ġseeking": 7200,
      "Ġfarms": 7201,
      "Ġstrongly": 7202,
      "Ġatmospheric": 7203,
      "Ġmosquit": 7204,
      "Ġsatellite": 7205,
      "OL": 7206,
      "vard": 7207,
      "Ġtomat": 7208,
      "ĠTim": 7209,
      "ĠPo": 7210,
      "Ġplus": 7211,
      "Ġevil": 7212,
      "Ġevident": 7213,
      "ails": 7214,
      "Ġ38": 7215,
      "Ġreliable": 7216,
      "rowing": 7217,
      "Ġ55": 7218,
      "Ġgravity": 7219,
      "ĠConst": 7220,
      "ographical": 7221,
      "aimed": 7222,
      "ĠWarren": 7223,
      "Ġbusinesses": 7224,
      "Ġcardi": 7225,
      "ĠMicro": 7226,
      "Ġemphasis": 7227,
      "Ġtrouble": 7228,
      "Because": 7229,
      "fall": 7230,
      "Ġtight": 7231,
      "Ġmales": 7232,
      "Ġforget": 7233,
      "Ġstead": 7234,
      "Ġstroke": 7235,
      "eless": 7236,
      "ĠMake": 7237,
      "ĠVis": 7238,
      "Ġregime": 7239,
      "erted": 7240,
      "hesis": 7241,
      "Ġrefuge": 7242,
      "Ġdistributed": 7243,
      "ĠArts": 7244,
      "Ġplane": 7245,
      "ounter": 7246,
      "Ġconference": 7247,
      "Ġwrites": 7248,
      "Ġdescend": 7249,
      "roduction": 7250,
      "Ġtrip": 7251,
      "Ġdelivery": 7252,
      "Ġparticipation": 7253,
      "Ġoptim": 7254,
      "liest": 7255,
      "Ġelsewhere": 7256,
      "Ġcamera": 7257,
      "Ġnode": 7258,
      "Ġgiant": 7259,
      "ĠAh": 7260,
      "ĠSar": 7261,
      "ĠSil": 7262,
      "elve": 7263,
      "acing": 7264,
      "ĠGar": 7265,
      "ĠOl": 7266,
      "Ġreserved": 7267,
      "ĠThough": 7268,
      "ishment": 7269,
      "Ġtransf": 7270,
      "Ġhighlight": 7271,
      "Ġsupporting": 7272,
      "azing": 7273,
      "aneous": 7274,
      "Ġ1969": 7275,
      "ĠMinistry": 7276,
      "Ġliterary": 7277,
      "ĠKingdom": 7278,
      "Ġcapture": 7279,
      "ĠSuper": 7280,
      "ĠVolume": 7281,
      "Ġwatershed": 7282,
      "Ġexperimental": 7283,
      "Ġcategories": 7284,
      "Ġappointed": 7285,
      "Ġnewspaper": 7286,
      "Ġhormone": 7287,
      "RA": 7288,
      "real": 7289,
      "Ġcab": 7290,
      "itler": 7291,
      "Ġbread": 7292,
      "Ġfet": 7293,
      "ani": 7294,
      "Ġnurs": 7295,
      "ĠCle": 7296,
      "open": 7297,
      "abul": 7298,
      "abits": 7299,
      "ĠFund": 7300,
      "ptic": 7301,
      "Ġ1930": 7302,
      "Ġresolution": 7303,
      "Ġdose": 7304,
      "phone": 7305,
      "ooking": 7306,
      "Ġexped": 7307,
      "century": 7308,
      "Ġlessons": 7309,
      "Ġpercentage": 7310,
      "including": 7311,
      "Ġindustries": 7312,
      "Ġdemonstrate": 7313,
      "Ġencouraged": 7314,
      "Ġimplications": 7315,
      "Ġexception": 7316,
      "iosity": 7317,
      "Ġcooking": 7318,
      "Ġpurchase": 7319,
      "ĠForest": 7320,
      "Ġcommitment": 7321,
      "Ġsharp": 7322,
      "ĠAriz": 7323,
      "Ġjourney": 7324,
      "Ġconfirmed": 7325,
      "%)": 7326,
      "FS": 7327,
      "Ġ..": 7328,
      "Ġtank": 7329,
      "Ġaer": 7330,
      "Ġcrow": 7331,
      "ĠAS": 7332,
      "Ġstone": 7333,
      "ĠBig": 7334,
      "ĠHave": 7335,
      "Ġseat": 7336,
      "Ġincl": 7337,
      "soft": 7338,
      "Ġteen": 7339,
      "Ġrelief": 7340,
      "iously": 7341,
      "Ġcalling": 7342,
      "Ġedge": 7343,
      "Ġvalid": 7344,
      "arents": 7345,
      "Ġ150": 7346,
      "Ġreceiving": 7347,
      "ĠJohnson": 7348,
      "Ġargue": 7349,
      "ĠBooks": 7350,
      "Ġsettlement": 7351,
      "Ġbringing": 7352,
      "Ġdrawing": 7353,
      "ĠAngel": 7354,
      "Ġsubsequent": 7355,
      "Ġinflammation": 7356,
      "Pre": 7357,
      "Å¿": 7358,
      "Ġâ": 7359,
      "oler": 7360,
      "ĠMen": 7361,
      "Ġpartner": 7362,
      "Ġoutcome": 7363,
      "Ġunderlying": 7364,
      "Ġ1880": 7365,
      "Ġfever": 7366,
      "Ġflo": 7367,
      "venile": 7368,
      "Ġboat": 7369,
      "Ġstarts": 7370,
      "ĠAdv": 7371,
      "2009": 7372,
      "ymes": 7373,
      "Ġmagnitude": 7374,
      "Ġordinary": 7375,
      "Ġcovering": 7376,
      "Ġtissues": 7377,
      "Ġevaluation": 7378,
      "Ġcopyright": 7379,
      "Ġpanel": 7380,
      "ĠSometimes": 7381,
      "AA": 7382,
      "QL": 7383,
      "iary": 7384,
      "zer": 7385,
      "Ġvel": 7386,
      "inally": 7387,
      "Ġsod": 7388,
      "Ġbot": 7389,
      "Ġblow": 7390,
      "Ġhunting": 7391,
      "Ġlots": 7392,
      "Ġnodes": 7393,
      "ĠWrit": 7394,
      "Ġvan": 7395,
      "itely": 7396,
      "Ġpeak": 7397,
      "Ġpoem": 7398,
      "Ġpolar": 7399,
      "Ġmodified": 7400,
      "Ġdistant": 7401,
      "Ġcorrel": 7402,
      "Ġdirections": 7403,
      "Ġdescript": 7404,
      "Ġtempor": 7405,
      "Ġfourth": 7406,
      "Ġ1988": 7407,
      "Ġfacing": 7408,
      "Ġsubstances": 7409,
      "Ġcorner": 7410,
      "Ġinterpretation": 7411,
      "Ġspectrum": 7412,
      "ĠWindows": 7413,
      "Ġadequate": 7414,
      "59": 7415,
      "RS": 7416,
      "fts": 7417,
      "gers": 7418,
      "iations": 7419,
      "la": 7420,
      "ĠÎ": 7421,
      "ĠAff": 7422,
      "ushed": 7423,
      "Ġexclus": 7424,
      "ĠEqu": 7425,
      "ĠEffect": 7426,
      "ĠEastern": 7427,
      "ĠFamily": 7428,
      "Ġritual": 7429,
      "assination": 7430,
      "avor": 7431,
      "Ġpreval": 7432,
      "anges": 7433,
      "Ġ37": 7434,
      "Ġrab": 7435,
      "Ġblocks": 7436,
      "Ġsmoke": 7437,
      "Ġinstalled": 7438,
      "Ġgluc": 7439,
      "Ġcareful": 7440,
      "Ġpresentation": 7441,
      "elfare": 7442,
      "Ġprotective": 7443,
      "ĠAmong": 7444,
      "Ġtoxicity": 7445,
      "ĠMaryland": 7446,
      "09": 7447,
      "App": 7448,
      "Ġ×": 7449,
      "Ġtropical": 7450,
      "rection": 7451,
      "Ġfro": 7452,
      "Ġgap": 7453,
      "ĠDen": 7454,
      "aph": 7455,
      "apor": 7456,
      "Ġperception": 7457,
      "eping": 7458,
      "Ġbless": 7459,
      "uese": 7460,
      "Ġfinds": 7461,
      "Ġworksh": 7462,
      "ourage": 7463,
      "ĠJeff": 7464,
      "ĠDivision": 7465,
      "68": 7466,
      "DT": 7467,
      "IM": 7468,
      "just": 7469,
      "li": 7470,
      "names": 7471,
      "reated": 7472,
      "itivity": 7473,
      "Ġfo": 7474,
      "sell": 7475,
      "eren": 7476,
      "ĠHor": 7477,
      "ĠWhere": 7478,
      "ĠRh": 7479,
      "ĠFDA": 7480,
      "ĠLanguage": 7481,
      "Ġproven": 7482,
      "Ġexamination": 7483,
      "ranes": 7484,
      "Ġartificial": 7485,
      "Ġguard": 7486,
      "Ġrealize": 7487,
      "Ġheads": 7488,
      "Ġchemistry": 7489,
      "Ġfeelings": 7490,
      "Ġmountains": 7491,
      "ĠConference": 7492,
      "Ġtraditions": 7493,
      "zyme": 7494,
      "Ġrenewable": 7495,
      "Ġaccompan": 7496,
      "Ear": 7497,
      "Not": 7498,
      "chen": 7499,
      "non": 7500,
      "itative": 7501,
      "itals": 7502,
      "ĠAcc": 7503,
      "ĠSk": 7504,
      "adm": 7505,
      "adow": 7506,
      "ĠHo": 7507,
      "Ġsup": 7508,
      "ĠLib": 7509,
      "Ġusual": 7510,
      "apse": 7511,
      "ateral": 7512,
      "Ġjump": 7513,
      "Ġunw": 7514,
      "Ġpreserve": 7515,
      "Ġmaintenance": 7516,
      "Ġprominent": 7517,
      "2008": 7518,
      "Ġdamaged": 7519,
      "ĠMinister": 7520,
      "Ġirrigation": 7521,
      "Ġsoul": 7522,
      "Ġecological": 7523,
      "ĠServices": 7524,
      "ĠSenate": 7525,
      "ĠCambridge": 7526,
      "ĠOrganization": 7527,
      "Ġchicken": 7528,
      "Ġthorough": 7529,
      "Ref": 7530,
      "pos": 7531,
      "pass": 7532,
      "Ġcats": 7533,
      "Ġcaught": 7534,
      "Ġbatt": 7535,
      "Ġlin": 7536,
      "rav": 7537,
      "ĠCreat": 7538,
      "ĠPoint": 7539,
      "ĠHim": 7540,
      "ĠHoly": 7541,
      "ivered": 7542,
      "ĠFace": 7543,
      "ĠNaz": 7544,
      "Ġchair": 7545,
      "arts": 7546,
      "ĠList": 7547,
      "Ġourselves": 7548,
      "Ġtechnological": 7549,
      "ĠSpring": 7550,
      "Ġbelieves": 7551,
      "Ġlowest": 7552,
      "ĠBefore": 7553,
      "Ġsettled": 7554,
      "Ġprinted": 7555,
      "Ġharmful": 7556,
      "ĠProtection": 7557,
      "senic": 7558,
      "Ġunusual": 7559,
      "ĠGeorgia": 7560,
      "Mar": 7561,
      "Ġdance": 7562,
      "Ġdates": 7563,
      "Ġthou": 7564,
      "ĠPage": 7565,
      "ĠBul": 7566,
      "usiness": 7567,
      "ĠHunting": 7568,
      "ĠLin": 7569,
      "Ġspaces": 7570,
      "Ġshop": 7571,
      "Ġcontribution": 7572,
      "Ġrecover": 7573,
      "Ġtrained": 7574,
      "Ġcoff": 7575,
      "Ġcarb": 7576,
      "Ġ1991": 7577,
      "Ġidentification": 7578,
      "Ġkilling": 7579,
      "prof": 7580,
      "ĠPrevention": 7581,
      "Ġbabies": 7582,
      "ĠCommunity": 7583,
      "Ġautomatically": 7584,
      "Ġmissing": 7585,
      "ĠIranian": 7586,
      "iblical": 7587,
      "ĠNatchez": 7588,
      "Ġlaser": 7589,
      "Ġathlet": 7590,
      "ĠSupreme": 7591,
      "58": 7592,
      "Every": 7593,
      "Read": 7594,
      "effect": 7595,
      "Ġthr": 7596,
      "ĠPed": 7597,
      "ĠHay": 7598,
      "Ġring": 7599,
      "ĠLow": 7600,
      "wealth": 7601,
      "Ġacknow": 7602,
      "ĠAdd": 7603,
      "Ġoccurring": 7604,
      "sylv": 7605,
      "Ġdriven": 7606,
      "ĠScot": 7607,
      "Ġchoices": 7608,
      "Ġconsumer": 7609,
      "Ġabsence": 7610,
      "Ġmaintained": 7611,
      "Ġstopped": 7612,
      "Ġmitochond": 7613,
      "Ġintelligence": 7614,
      "Ġlecture": 7615,
      "ĠArizona": 7616,
      "National": 7617,
      "PI": 7618,
      "Pl": 7619,
      "ais": 7620,
      "mod": 7621,
      "rd": 7622,
      "Ġahead": 7623,
      "ouds": 7624,
      "Ġhidden": 7625,
      "ĠTri": 7626,
      "ĠSund": 7627,
      "ading": 7628,
      "ĠBal": 7629,
      "Ġhero": 7630,
      "Ġran": 7631,
      "Ġenorm": 7632,
      "ustain": 7633,
      "orses": 7634,
      "Ġroads": 7635,
      "Ġaccident": 7636,
      "ĠSpirit": 7637,
      "class": 7638,
      "Ġcharged": 7639,
      "Ġconfirm": 7640,
      "amps": 7641,
      "Ġfinished": 7642,
      "Ġbeneficial": 7643,
      "Ġfunds": 7644,
      "Ġfalling": 7645,
      "ĠAngola": 7646,
      "copation": 7647,
      "Ġlungs": 7648,
      "ĠAuthor": 7649,
      "Ġphrase": 7650,
      "Ġvulnerable": 7651,
      "People": 7652,
      "07": 7653,
      "Comm": 7654,
      "Your": 7655,
      "bel": 7656,
      "cin": 7657,
      "rus": 7658,
      "Ã¤": 7659,
      "Ġtape": 7660,
      "hether": 7661,
      "only": 7662,
      "isd": 7663,
      "isk": 7664,
      "Ġboy": 7665,
      "idance": 7666,
      "iratory": 7667,
      "riers": 7668,
      "ocent": 7669,
      "ogether": 7670,
      "Ġships": 7671,
      "Ġplain": 7672,
      "Ġarmed": 7673,
      "ĠStation": 7674,
      "ologic": 7675,
      "Ġoutcomes": 7676,
      "Ġinterface": 7677,
      "ĠZion": 7678,
      "Ġproportion": 7679,
      "ucky": 7680,
      "Ġremoval": 7681,
      "Ġorders": 7682,
      "Ġsilver": 7683,
      "ĠCurrent": 7684,
      "Ġcoordinate": 7685,
      "Ġexecutive": 7686,
      "Ġdropped": 7687,
      "Ġupdated": 7688,
      "Ġroughly": 7689,
      "Ġpesticides": 7690,
      "OU": 7691,
      "rity": 7692,
      "Ġmunicip": 7693,
      "Ġislands": 7694,
      "Ġgro": 7695,
      "ĠCy": 7696,
      "Ġconj": 7697,
      "Ġconclus": 7698,
      "Ġanterior": 7699,
      "ĠRock": 7700,
      "ogl": 7701,
      "Ġleaf": 7702,
      "Ġrocks": 7703,
      "Ġflour": 7704,
      "Ġknowing": 7705,
      "ĠClimate": 7706,
      "ĠMedia": 7707,
      "Ġhappening": 7708,
      "Ġasking": 7709,
      "Ġaddressed": 7710,
      "Ġdomain": 7711,
      "ĠConnect": 7712,
      "Ġclothing": 7713,
      "ugh": 7714,
      "writ": 7715,
      "Ġmg": 7716,
      "Ġdiver": 7717,
      "Ġlunch": 7718,
      "Ġwithd": 7719,
      "ums": 7720,
      "ĠLo": 7721,
      "action": 7722,
      "Ġarray": 7723,
      "Ġouter": 7724,
      "Ġrepair": 7725,
      "Ġexamined": 7726,
      "Ġvariation": 7727,
      "ĠIndust": 7728,
      "ĠIslands": 7729,
      "Ġvisited": 7730,
      "Ġpointed": 7731,
      "2013": 7732,
      "Ġviewed": 7733,
      "Ġsustainability": 7734,
      "Ġaims": 7735,
      "Ġscreening": 7736,
      "unteer": 7737,
      "Ġinitiative": 7738,
      "Ġlicens": 7739,
      "About": 7740,
      "Ġillegal": 7741,
      "ĠPolicy": 7742,
      "Today": 7743,
      "aith": 7744,
      "pus": 7745,
      "press": 7746,
      "Ġfashion": 7747,
      "Ġinqu": 7748,
      "Ġmira": 7749,
      "Ġdys": 7750,
      "Ġrely": 7751,
      "sex": 7752,
      "ĠSolar": 7753,
      "Ġstores": 7754,
      "amination": 7755,
      "ĠHill": 7756,
      "essions": 7757,
      "ĠWeek": 7758,
      "Ġshock": 7759,
      "Ġcompare": 7760,
      "ritis": 7761,
      "Ġ48": 7762,
      "Ġartist": 7763,
      "Ġcomplement": 7764,
      "Ġadvis": 7765,
      "Ġeleph": 7766,
      "Ġpositions": 7767,
      "Ġconnections": 7768,
      "Ġcharacterized": 7769,
      "ĠTrade": 7770,
      "Ġtumors": 7771,
      "Ġvirtually": 7772,
      "Ġreproductive": 7773,
      "Ġevaluate": 7774,
      "ollowing": 7775,
      "Ġinfluenced": 7776,
      "sylvania": 7777,
      "dad": 7778,
      "gence": 7779,
      "hav": 7780,
      "requ": 7781,
      "Ġmine": 7782,
      "ĠAge": 7783,
      "ĠCA": 7784,
      "ĠCare": 7785,
      "ami": 7786,
      "Ġdealing": 7787,
      "ĠBab": 7788,
      "anda": 7789,
      "pling": 7790,
      "Ġcompound": 7791,
      "Ġunem": 7792,
      "ube": 7793,
      "Ġmedication": 7794,
      "Ġeffectiveness": 7795,
      "Ġconsidering": 7796,
      "Ġcopies": 7797,
      "Ġdebt": 7798,
      "Ġdebris": 7799,
      "Ġmachines": 7800,
      "Ġdanger": 7801,
      "ĠConfed": 7802,
      "ĠAND": 7803,
      "Ġorientation": 7804,
      "foot": 7805,
      "onn": 7806,
      "esides": 7807,
      "itical": 7808,
      "Ġpair": 7809,
      "ĠClick": 7810,
      "uled": 7811,
      "ĠMove": 7812,
      "Ġdeeper": 7813,
      "iva": 7814,
      "ĠLee": 7815,
      "ĠJr": 7816,
      "ĠObs": 7817,
      "ells": 7818,
      "Ġplenty": 7819,
      "Ġdisaster": 7820,
      "eps": 7821,
      "anger": 7822,
      "neys": 7823,
      "Ġpresents": 7824,
      "Ġearn": 7825,
      "Ġforming": 7826,
      "Ġsheet": 7827,
      "ĠOnline": 7828,
      "Ġassociate": 7829,
      "Ġresearcher": 7830,
      "Ġrepresentatives": 7831,
      "Ġbeliefs": 7832,
      "Ġtube": 7833,
      "Ġpoetry": 7834,
      "EO": 7835,
      "Per": 7836,
      "Ġcattle": 7837,
      "anz": 7838,
      "rooms": 7839,
      "Ġhat": 7840,
      "Ġholid": 7841,
      "ceans": 7842,
      "ĠAT": 7843,
      "ĠSS": 7844,
      "aded": 7845,
      "ĠHitler": 7846,
      "Ġvac": 7847,
      "ĠResp": 7848,
      "allow": 7849,
      "Ġinfant": 7850,
      "ĠChange": 7851,
      "Ġracial": 7852,
      "Ġrelax": 7853,
      "Ġanywhere": 7854,
      "Ġpron": 7855,
      "Ġsupplements": 7856,
      "Ġearliest": 7857,
      "Ġevening": 7858,
      "Ġmining": 7859,
      "Ġmeasuring": 7860,
      "ĠCentre": 7861,
      "Ġimprovement": 7862,
      "Ġhabitats": 7863,
      "ĠMichigan": 7864,
      "Ġuniversities": 7865,
      "Ġlibert": 7866,
      "Ġmammals": 7867,
      "Ġdramatic": 7868,
      "Ġsplit": 7869,
      "ĠDarwin": 7870,
      "Ġnarrative": 7871,
      "Ġnutrients": 7872,
      "Ġanxiety": 7873,
      "CA": 7874,
      "CR": 7875,
      "Che": 7876,
      "pes": 7877,
      "yer": 7878,
      "athered": 7879,
      "Ġbiodiversity": 7880,
      "ician": 7881,
      "asant": 7882,
      "urning": 7883,
      "Ġorgans": 7884,
      "Ġheating": 7885,
      "ĠFigure": 7886,
      "Ġcancers": 7887,
      "Ġworst": 7888,
      "asty": 7889,
      "Ġinfect": 7890,
      "Ġraw": 7891,
      "Ġgray": 7892,
      "Ġinsulin": 7893,
      "Ġskill": 7894,
      "Ġtemporary": 7895,
      "ĠColl": 7896,
      "ĠRepresent": 7897,
      "Ġcutting": 7898,
      "Ġarchae": 7899,
      "ythm": 7900,
      "Ġcrack": 7901,
      "ĠTestament": 7902,
      "Ġbehaviour": 7903,
      "ĠDaniel": 7904,
      "Ġhypothesis": 7905,
      "ĠPortuguese": 7906,
      "92": 7907,
      "CE": 7908,
      "Cons": 7909,
      "upt": 7910,
      "ye": 7911,
      "onal": 7912,
      "Ġcash": 7913,
      "Ġpione": 7914,
      "Ġmeth": 7915,
      "ouri": 7916,
      "icular": 7917,
      "Ġholes": 7918,
      "omed": 7919,
      "Ġlibr": 7920,
      "Ġnerve": 7921,
      "elesc": 7922,
      "this": 7923,
      "acent": 7924,
      "Ġcontents": 7925,
      "izer": 7926,
      "Ġclient": 7927,
      "Ġcommands": 7928,
      "obile": 7929,
      "Ġsched": 7930,
      "Ġsimult": 7931,
      "Ġexplicit": 7932,
      "Ġanalog": 7933,
      "Ġdelivered": 7934,
      "Ġmoves": 7935,
      "Ġfalls": 7936,
      "Ġinitially": 7937,
      "Ġthreats": 7938,
      "Ġrespectively": 7939,
      "ĠSimilar": 7940,
      "Ġmigration": 7941,
      "Ġcategory": 7942,
      "species": 7943,
      "ĠStandard": 7944,
      "ĠHistorical": 7945,
      "Ġglucose": 7946,
      "bra": 7947,
      "made": 7948,
      "Ã§": 7949,
      "hea": 7950,
      "erly": 7951,
      "onym": 7952,
      "Ġbath": 7953,
      "aning": 7954,
      "ilation": 7955,
      "Ġlists": 7956,
      "sets": 7957,
      "Ġgases": 7958,
      "iments": 7959,
      "child": 7960,
      "ĠSir": 7961,
      "adder": 7962,
      "ifer": 7963,
      "ĠPen": 7964,
      "ĠDespite": 7965,
      "Ġenlar": 7966,
      "ghan": 7967,
      "ghdad": 7968,
      "Ġworship": 7969,
      "Ġclock": 7970,
      "Ġroots": 7971,
      "chnology": 7972,
      "Ġreader": 7973,
      "ĠSpain": 7974,
      "oids": 7975,
      "Ġdegrad": 7976,
      "Ġheavily": 7977,
      "Ġconcrete": 7978,
      "ĠSystems": 7979,
      "Ġgradually": 7980,
      "Ġapparently": 7981,
      "Ġweapons": 7982,
      "mers": 7983,
      "aton": 7984,
      "Ġpond": 7985,
      "Ġment": 7986,
      "Ġthym": 7987,
      "olph": 7988,
      "imic": 7989,
      "rays": 7990,
      "ĠMethod": 7991,
      "ĠDig": 7992,
      "ĠDiff": 7993,
      "antic": 7994,
      "ĠFe": 7995,
      "ĠFather": 7996,
      "Ġneur": 7997,
      "ĠGall": 7998,
      "Ġsport": 7999,
      "ĠKansas": 8000,
      "Ġinferior": 8001,
      "Ġagent": 8002,
      "Ġobesity": 8003,
      "gener": 8004,
      "Ġdemands": 8005,
      "Ġpreventing": 8006,
      "ĠOrig": 8007,
      "Ġhardware": 8008,
      "Ġexercises": 8009,
      "ĠMoreover": 8010,
      "Ġangle": 8011,
      "gressive": 8012,
      "Ġinhabit": 8013,
      "ĠEconomic": 8014,
      "56": 8015,
      "],": 8016,
      "xml": 8017,
      "Ġmac": 8018,
      "ĠTay": 8019,
      "otal": 8020,
      "otion": 8021,
      "Ġstick": 8022,
      "ĠMid": 8023,
      "ĠMain": 8024,
      "Ġhence": 8025,
      "Ġrice": 8026,
      "ĠLess": 8027,
      "ĠOil": 8028,
      "akistan": 8029,
      "Ġmaybe": 8030,
      "Ġextension": 8031,
      "Ġadvances": 8032,
      "Ġdemocracy": 8033,
      "Ġpromise": 8034,
      "Ġfunded": 8035,
      "regon": 8036,
      "Ġasthma": 8037,
      "Ġdecreased": 8038,
      "ĠPennsylvania": 8039,
      "Ġperceived": 8040,
      "Ġerrors": 8041,
      "ĠFacebook": 8042,
      "%.": 8043,
      "mes": 8044,
      "ãĢ": 8045,
      "Ġmes": 8046,
      "Ġhabits": 8047,
      "ĠTenn": 8048,
      "Ġwhale": 8049,
      "thod": 8050,
      "ĠHy": 8051,
      "Ġhealing": 8052,
      "Ġvoc": 8053,
      "ĠFil": 8054,
      "ĠGre": 8055,
      "ĠJava": 8056,
      "Ġdism": 8057,
      "ĠKh": 8058,
      "Ġtwelve": 8059,
      "Ġspecified": 8060,
      "ieth": 8061,
      "Ġsciences": 8062,
      "Ġenth": 8063,
      "Ġtreating": 8064,
      "Ġvisits": 8065,
      "Ġguidance": 8066,
      "ĠYoung": 8067,
      "swana": 8068,
      "Ġradical": 8069,
      "being": 8070,
      "Ġrepresentative": 8071,
      "Ġexisted": 8072,
      "Ġreviewed": 8073,
      "Ġpackage": 8074,
      "Ġcontributed": 8075,
      "Ġbeauty": 8076,
      "ĠMiller": 8077,
      "ĠJustice": 8078,
      "Ġfavorite": 8079,
      "Ġinformed": 8080,
      "Ġtherm": 8081,
      "pdf": 8082,
      "Ġjurisd": 8083,
      "Ġdynamic": 8084,
      "Ġphotographs": 8085,
      "ĠSecretary": 8086,
      "ĠMalaysia": 8087,
      "DS": 8088,
      "Sc": 8089,
      "ao": 8090,
      "iological": 8091,
      "you": 8092,
      "itled": 8093,
      "Ġmm": 8094,
      "Ġmur": 8095,
      "ounce": 8096,
      "oline": 8097,
      "Ġgent": 8098,
      "ĠAL": 8099,
      "ĠSant": 8100,
      "ĠSection": 8101,
      "Ġforg": 8102,
      "Ġstake": 8103,
      "amins": 8104,
      "aying": 8105,
      "abric": 8106,
      "quar": 8107,
      "Ġspoke": 8108,
      "ostic": 8109,
      "fficking": 8110,
      "ĠInit": 8111,
      "ruption": 8112,
      "onday": 8113,
      "Ġnewly": 8114,
      "plete": 8115,
      "Ġemission": 8116,
      "spect": 8117,
      "Ġperforming": 8118,
      "2006": 8119,
      "ĠSyn": 8120,
      "Ġtherapies": 8121,
      "Ġheaven": 8122,
      "ĠNeu": 8123,
      "Ġaudience": 8124,
      "Ġranging": 8125,
      "ĠOpen": 8126,
      "ĠMPa": 8127,
      "Ġenforcement": 8128,
      "otherapy": 8129,
      "91": 8130,
      "96": 8131,
      "nov": 8132,
      "Â®": 8133,
      "Ġid": 8134,
      "eness": 8135,
      "Ġhole": 8136,
      "Ġhorses": 8137,
      "ila": 8138,
      "Ġreaching": 8139,
      "imm": 8140,
      "ĠCapt": 8141,
      "Ġconce": 8142,
      "ĠPur": 8143,
      "emeter": 8144,
      "Ġspr": 8145,
      "Ġblank": 8146,
      "ĠHeart": 8147,
      "Ġinvention": 8148,
      "Ġoccas": 8149,
      "Ġmeteor": 8150,
      "Ġdesigns": 8151,
      "Ġdevast": 8152,
      "2004": 8153,
      "Ġobservation": 8154,
      "Ġdifficulties": 8155,
      "Ġconsideration": 8156,
      "Ġsunlight": 8157,
      "Ġengineers": 8158,
      "ĠMcC": 8159,
      "Ġbranches": 8160,
      "ĠFinally": 8161,
      "Once": 8162,
      "sub": 8163,
      "yles": 8164,
      "iture": 8165,
      "Ġrect": 8166,
      "oding": 8167,
      "istant": 8168,
      "istical": 8169,
      "ĠHand": 8170,
      "Ġsuit": 8171,
      "ĠDown": 8172,
      "ĠEst": 8173,
      "uster": 8174,
      "ĠJack": 8175,
      "agan": 8176,
      "Ġmeal": 8177,
      "Ġdesired": 8178,
      "Ġphosph": 8179,
      "Ġ46": 8180,
      "Ġbuff": 8181,
      "Ġserving": 8182,
      "mann": 8183,
      "Ġposterior": 8184,
      "ĠPlant": 8185,
      "Ġmagazine": 8186,
      "Ġvideos": 8187,
      "Ġpsychological": 8188,
      "Ġsequences": 8189,
      "Ġtribe": 8190,
      "Ġcustomers": 8191,
      "Ġrecommendations": 8192,
      "Ġinnovation": 8193,
      "Ġhorizont": 8194,
      "Ġloved": 8195,
      "Am": 8196,
      "Click": 8197,
      "zymes": 8198,
      "Ġthroat": 8199,
      "lymp": 8200,
      "Ġorbit": 8201,
      "ĠHung": 8202,
      "ĠNon": 8203,
      "asts": 8204,
      "Ġcomprom": 8205,
      "eph": 8206,
      "ĠKey": 8207,
      "lesh": 8208,
      "Ġempire": 8209,
      "archy": 8210,
      "ĠAsk": 8211,
      "Ġreporting": 8212,
      "Ġloan": 8213,
      "2007": 8214,
      "Ġurine": 8215,
      "Ġfaced": 8216,
      "Ġswitch": 8217,
      "Ġflows": 8218,
      "Ġlosses": 8219,
      "Ġconcerning": 8220,
      "Ġarguments": 8221,
      "Ġsteel": 8222,
      "Ġimplemented": 8223,
      "Ġbrings": 8224,
      "Ġconstantly": 8225,
      "isphere": 8226,
      "Ġcollaboration": 8227,
      "CL": 8228,
      "Me": 8229,
      "Sub": 8230,
      "after": 8231,
      "uy": 8232,
      "reland": 8233,
      "Ġcort": 8234,
      "Ġfellow": 8235,
      "Ġmour": 8236,
      "Ġmouse": 8237,
      "Ġtooth": 8238,
      "ĠSus": 8239,
      "Ġasc": 8240,
      "ĠBiology": 8241,
      "illa": 8242,
      "about": 8243,
      "rien": 8244,
      "Ġcham": 8245,
      "Ġevolved": 8246,
      "Ġ34": 8247,
      "Ġraising": 8248,
      "Ġplayers": 8249,
      "Ġcharacteristic": 8250,
      "ĠImm": 8251,
      "Ġcrimes": 8252,
      "Ġverb": 8253,
      "Ġpsychology": 8254,
      "Ġevolutionary": 8255,
      "Ġreveal": 8256,
      "ĠArchives": 8257,
      "Ġbreath": 8258,
      "Ġqualities": 8259,
      "ovenant": 8260,
      "Ġstreets": 8261,
      "Let": 8262,
      "vi": 8263,
      "Ġtor": 8264,
      "Ġwine": 8265,
      "orters": 8266,
      "Ġbull": 8267,
      "Ġfrog": 8268,
      "icy": 8269,
      "icity": 8270,
      "Ġdensity": 8271,
      "Ġholy": 8272,
      "Ġrevenue": 8273,
      "cho": 8274,
      "igate": 8275,
      "Ġprosec": 8276,
      "thritis": 8277,
      "Ġrational": 8278,
      "una": 8279,
      "Ġsperm": 8280,
      "ĠOregon": 8281,
      "Ġoffering": 8282,
      "Ġsmart": 8283,
      "Ġsolve": 8284,
      "Ġdirectory": 8285,
      "Ġrestore": 8286,
      "Ġdetermination": 8287,
      "Ġ1986": 8288,
      "Ġfunctional": 8289,
      "Ġversions": 8290,
      "Ġvariables": 8291,
      "Ġmothers": 8292,
      "Ġadopt": 8293,
      "Ġaltitude": 8294,
      "Ġtelevision": 8295,
      "Ġsaved": 8296,
      "Ġkilometers": 8297,
      "Ġunlikely": 8298,
      "Ġinspired": 8299,
      "ĠAgriculture": 8300,
      "Ġcoffee": 8301,
      ".).": 8302,
      "52": 8303,
      "Lear": 8304,
      "Ġ;": 8305,
      "ala": 8306,
      "Ġflying": 8307,
      "oul": 8308,
      "Ġhosp": 8309,
      "enter": 8310,
      "ĠSaint": 8311,
      "ĠCall": 8312,
      "ulpt": 8313,
      "abapt": 8314,
      "estyle": 8315,
      "ĠLos": 8316,
      "Ġabd": 8317,
      "Ġplas": 8318,
      "ailed": 8319,
      "Ġaccord": 8320,
      "Ġ44": 8321,
      "ohyd": 8322,
      "2010": 8323,
      "Ġwarning": 8324,
      "Ġrestric": 8325,
      "Ġcheap": 8326,
      "Ġstronger": 8327,
      "Ġstatistics": 8328,
      "Ġprivile": 8329,
      "Ġdominant": 8330,
      "Ġmolecule": 8331,
      "Ġsuspect": 8332,
      "Ġtranslated": 8333,
      "ĠModern": 8334,
      "ĠMissouri": 8335,
      "Ġventric": 8336,
      "Ġminority": 8337,
      "Ġeliminate": 8338,
      "Ġneighborhood": 8339,
      "Ġmortality": 8340,
      "ĠSunday": 8341,
      "800": 8342,
      "Scient": 8343,
      "bul": 8344,
      "brid": 8345,
      "fe": 8346,
      "feed": 8347,
      "iw": 8348,
      "rong": 8349,
      "Ĥ¬": 8350,
      "isdom": 8351,
      "oric": 8352,
      "orith": 8353,
      "ĠIreland": 8354,
      "rive": 8355,
      "ĠDutch": 8356,
      "Ġspray": 8357,
      "Ġshoot": 8358,
      "pled": 8359,
      "Ġdisability": 8360,
      "Ġarise": 8361,
      "Ġtheme": 8362,
      "Ġcolour": 8363,
      "awa": 8364,
      "Ġtransp": 8365,
      "Ġinstances": 8366,
      "ĠProb": 8367,
      "Ġ600": 8368,
      "Ġhandling": 8369,
      "Ġ1982": 8370,
      "Ġcalories": 8371,
      "ammad": 8372,
      "ependent": 8373,
      "Also": 8374,
      "mingb": 8375,
      "Ġattempted": 8376,
      "ĠPerhaps": 8377,
      "Ġcolonial": 8378,
      "Ġemotion": 8379,
      "Ġimagine": 8380,
      "Ġelectrons": 8381,
      "Ġgirl": 8382,
      "Ġthermal": 8383,
      "Ġtrigger": 8384,
      "ĠFurthermore": 8385,
      "Ġsatisf": 8386,
      "abulary": 8387,
      "thodox": 8388,
      "Part": 8389,
      "Under": 8390,
      "bach": 8391,
      "Ã¦": 8392,
      "Ġwelfare": 8393,
      "alin": 8394,
      "Ġthirty": 8395,
      "Ġerect": 8396,
      "utrition": 8397,
      "ĠSing": 8398,
      "ĠCub": 8399,
      "ulus": 8400,
      "ĠNever": 8401,
      "ogs": 8402,
      "Ġspons": 8403,
      "Ġshore": 8404,
      "ĠOlymp": 8405,
      "Ġrecording": 8406,
      "Ġquiet": 8407,
      "ĠYear": 8408,
      "Ġregister": 8409,
      "Ġdetected": 8410,
      "ployed": 8411,
      "Ġstructural": 8412,
      "2001": 8413,
      "aneously": 8414,
      "Ġprotecting": 8415,
      "Ġmeasurement": 8416,
      "ltry": 8417,
      "Ġestablishment": 8418,
      "Ġvictory": 8419,
      "Ġfeedback": 8420,
      "Ġvirtual": 8421,
      "ĠServer": 8422,
      "Ġwearing": 8423,
      "Ġbrothers": 8424,
      "Ġsucceeded": 8425,
      "usalem": 8426,
      "Ġveloc": 8427,
      "CI": 8428,
      "da": 8429,
      "gments": 8430,
      "lah": 8431,
      "Ġcas": 8432,
      "Ġcensus": 8433,
      "Ġcroc": 8434,
      "Ġmixture": 8435,
      "Ġhur": 8436,
      "idal": 8437,
      "Ġstood": 8438,
      "Ġstrain": 8439,
      "ĠMur": 8440,
      "ĠFair": 8441,
      "ĠField": 8442,
      "ocated": 8443,
      "ĠLight": 8444,
      "outheast": 8445,
      "Ġwheel": 8446,
      "Ġ1920": 8447,
      "Ġthanks": 8448,
      "lected": 8449,
      "Ġdistinction": 8450,
      "Ġboost": 8451,
      "Ġproviders": 8452,
      "Ġconfidence": 8453,
      "Ġfunctioning": 8454,
      "ĠAbraham": 8455,
      "ĠMarine": 8456,
      "Ġprobability": 8457,
      "Ġargued": 8458,
      "zech": 8459,
      "Ġdietary": 8460,
      "ĠQuest": 8461,
      "Ġhydro": 8462,
      "ĠHeritage": 8463,
      "ceedings": 8464,
      "Ġstruck": 8465,
      "ĠSwed": 8466,
      "Ġhousing": 8467,
      "Ġboundaries": 8468,
      "Ġcorresponding": 8469,
      "ĠBuddh": 8470,
      "Ġrecycling": 8471,
      "Ġbattery": 8472,
      "Ġenormous": 8473,
      "DE": 8474,
      "Def": 8475,
      "Hist": 8476,
      "Sm": 8477,
      "grams": 8478,
      "Ġtorn": 8479,
      "Ġsons": 8480,
      "Ġfought": 8481,
      "omers": 8482,
      "Ġnice": 8483,
      "otype": 8484,
      "Ġalive": 8485,
      "rium": 8486,
      "ĠEU": 8487,
      "Ġmanual": 8488,
      "Ġprey": 8489,
      "issance": 8490,
      "Ġpatch": 8491,
      "Ġmetast": 8492,
      "ĠAdam": 8493,
      "Ġpressures": 8494,
      "Ġargues": 8495,
      "Ġcolonies": 8496,
      "olester": 8497,
      "Ġlifetime": 8498,
      "Ġtranslation": 8499,
      "Ġgraduate": 8500,
      "ĠReference": 8501,
      "Ġmerch": 8502,
      "Ġgods": 8503,
      "ĠQuebec": 8504,
      "Ġdiscipline": 8505,
      "def": 8506,
      "night": 8507,
      "eries": 8508,
      "Ġsales": 8509,
      "Ġwars": 8510,
      "orig": 8511,
      "Ġfur": 8512,
      "Ġtox": 8513,
      "Ġlob": 8514,
      "ĠTable": 8515,
      "section": 8516,
      "Ġstuff": 8517,
      "Ġassemb": 8518,
      "ĠPakistan": 8519,
      "ĠDO": 8520,
      "aints": 8521,
      "Ġenzyme": 8522,
      "ourse": 8523,
      "ints": 8524,
      "Ġgenome": 8525,
      "Ġregulation": 8526,
      "uclear": 8527,
      "aws": 8528,
      "Ġcoverage": 8529,
      "Ġconfident": 8530,
      "ĠConvention": 8531,
      "untary": 8532,
      "Ġaffecting": 8533,
      "Ġdrives": 8534,
      "Ġgeomet": 8535,
      "ĠHarvard": 8536,
      "Ġvotes": 8537,
      "Ġphysicians": 8538,
      "Ġoccupied": 8539,
      "ĠModel": 8540,
      "Ġtrends": 8541,
      "ĠBaghdad": 8542,
      "Co": 8543,
      "Col": 8544,
      "fl": 8545,
      "green": 8546,
      "ois": 8547,
      "Ġsoph": 8548,
      "Ġfires": 8549,
      "stic": 8550,
      "ĠTom": 8551,
      "urches": 8552,
      "rared": 8553,
      "irie": 8554,
      "Ġ1000": 8555,
      "ĠPot": 8556,
      "Ġalph": 8557,
      "ods": 8558,
      "ĠDC": 8559,
      "antly": 8560,
      "ĠFred": 8561,
      "Ġindigenous": 8562,
      "Ġacting": 8563,
      "Ġcooperation": 8564,
      "ĠNewton": 8565,
      "Ġentitled": 8566,
      "Ġconfig": 8567,
      "ĠZeal": 8568,
      "Ġfaces": 8569,
      "Ġcircuit": 8570,
      "Ġemerging": 8571,
      "Ġreflected": 8572,
      "Ġuncertain": 8573,
      "Ġaimed": 8574,
      "ENT": 8575,
      "Ġadapted": 8576,
      "Ġpreferred": 8577,
      "Ġnucleus": 8578,
      "ĠJacob": 8579,
      "86": 8580,
      "93": 8581,
      "FC": 8582,
      "ML": 8583,
      "Rep": 8584,
      "She": 8585,
      "gic": 8586,
      "sue": 8587,
      "Ã¢": 8588,
      "Ġ)": 8589,
      "inch": 8590,
      "ati": 8591,
      "Ġcrown": 8592,
      "Ġpel": 8593,
      "icut": 8594,
      "ometer": 8595,
      "ĠTV": 8596,
      "ĠCre": 8597,
      "ĠHom": 8598,
      "ĠHam": 8599,
      "ĠWed": 8600,
      "ĠFact": 8601,
      "ecess": 8602,
      "Ġmeals": 8603,
      "Ġunp": 8604,
      "teenth": 8605,
      "ĠYes": 8606,
      "....": 8607,
      "Ġcounties": 8608,
      "Ġpubl": 8609,
      "Ġparticle": 8610,
      "Ġentering": 8611,
      "Ġminerals": 8612,
      "Ġmetres": 8613,
      "coming": 8614,
      "2011": 8615,
      "Ġfilter": 8616,
      "Ġ1979": 8617,
      "Ġsettings": 8618,
      "Ġfarming": 8619,
      "Ġviolent": 8620,
      "Art": 8621,
      "uzz": 8622,
      "ĠCommonwealth": 8623,
      "Ġmathematical": 8624,
      "Ġbonds": 8625,
      "Ġconclusions": 8626,
      "Ġenthus": 8627,
      "HS": 8628,
      "MM": 8629,
      "gust": 8630,
      "Ġty": 8631,
      "Ġsitting": 8632,
      "Ġwat": 8633,
      "Ġdoses": 8634,
      "Ġthyroid": 8635,
      "Ġgathered": 8636,
      "otton": 8637,
      "ĠSqu": 8638,
      "ifice": 8639,
      "ĠPass": 8640,
      "Ġven": 8641,
      "ĠDak": 8642,
      "ĠDoes": 8643,
      "ĠFind": 8644,
      "ĠFront": 8645,
      "ĠNote": 8646,
      "ĠLast": 8647,
      "Ġspending": 8648,
      "Ġallergy": 8649,
      "ipher": 8650,
      "Ġmanager": 8651,
      "Ġarsenic": 8652,
      "Ġremed": 8653,
      "vernment": 8654,
      "Ġdefault": 8655,
      "Ġgravel": 8656,
      "Ġdevoted": 8657,
      "Ġobserve": 8658,
      "Ġgrounds": 8659,
      "Ġregardless": 8660,
      "ĠGovernor": 8661,
      "Ġtargets": 8662,
      "III": 8663,
      "Ġstreams": 8664,
      "Ġsyntax": 8665,
      "Ġconvin": 8666,
      "Ġcereb": 8667,
      "Ġceremon": 8668,
      "ĠNavy": 8669,
      "ineteenth": 8670,
      "Ġswimming": 8671,
      "Ġmetabol": 8672,
      "Ġantibiotics": 8673,
      "ĠIndonesia": 8674,
      "admium": 8675,
      "olesterol": 8676,
      "300": 8677,
      "UT": 8678,
      "ba": 8679,
      "eut": 8680,
      "eur": 8681,
      "sm": 8682,
      "Ġmold": 8683,
      "rose": 8684,
      "ura": 8685,
      "Ġstations": 8686,
      "ĠMult": 8687,
      "Ġ130": 8688,
      "ĠPract": 8689,
      "ĠDrug": 8690,
      "Ġsees": 8691,
      "duate": 8692,
      "Ġdisrupt": 8693,
      "Ġclouds": 8694,
      "Ġinfants": 8695,
      "Ġattended": 8696,
      "ĠAlaska": 8697,
      "Ġeveryday": 8698,
      "ĠIndeed": 8699,
      "Ġcontinuing": 8700,
      "ĠClinical": 8701,
      "Ġavailability": 8702,
      "Ġteams": 8703,
      "Ġwindows": 8704,
      "ursday": 8705,
      "Ġmaintaining": 8706,
      "Ġembra": 8707,
      "Ġopinions": 8708,
      "Ġpartnership": 8709,
      "yrus": 8710,
      "Ġexcessive": 8711,
      "ĠCambod": 8712,
      "Ġmanufacturers": 8713,
      "ĠBotswana": 8714,
      "Ġduty": 8715,
      "Ġsubsid": 8716,
      "Ġdiameter": 8717,
      "Ġmelanoma": 8718,
      "ĠScotland": 8719,
      ".âĢĻ": 8720,
      "400": 8721,
      "Fig": 8722,
      "oons": 8723,
      "rin": 8724,
      "wan": 8725,
      "whel": 8726,
      "Ġ~": 8727,
      "Ġcm": 8728,
      "Ġfix": 8729,
      "Ġmature": 8730,
      "Ġhunt": 8731,
      "entieth": 8732,
      "Ġthy": 8733,
      "Ġconvey": 8734,
      "Ġanemia": 8735,
      "Ġ(âĢľ": 8736,
      "Ġitem": 8737,
      "ĠBattle": 8738,
      "ĠFar": 8739,
      "ĠNO": 8740,
      "Ġincident": 8741,
      "iph": 8742,
      "ologically": 8743,
      "Ġsmoking": 8744,
      "Ġreferences": 8745,
      "Ġendangered": 8746,
      "Ġparliament": 8747,
      "Ġprogramming": 8748,
      "Ġobjective": 8749,
      "Ġmusical": 8750,
      "Ġposted": 8751,
      "Ġ1989": 8752,
      "riday": 8753,
      "Ġdiagram": 8754,
      "Ġcontainers": 8755,
      "ĠAgain": 8756,
      "Ġsuscept": 8757,
      "Ġvoting": 8758,
      "ĠJerusalem": 8759,
      "Ġsongs": 8760,
      "ĠSafety": 8761,
      "Ġaccompanied": 8762,
      "ĠConnecticut": 8763,
      "Rel": 8764,
      "orrect": 8765,
      "Ġinact": 8766,
      "Ġreaches": 8767,
      "ĠSix": 8768,
      "ĠCT": 8769,
      "Ġstew": 8770,
      "ĠMA": 8771,
      "ĠHa": 8772,
      "Ġhepat": 8773,
      "ested": 8774,
      "Ġvice": 8775,
      "Ġchap": 8776,
      "ĠGet": 8777,
      "Ġadvent": 8778,
      "Ġindirect": 8779,
      "Ġroles": 8780,
      "ĠUnfortunately": 8781,
      "Ġempt": 8782,
      "Ġacute": 8783,
      "ropol": 8784,
      "ĠAssembly": 8785,
      "Ġmoderate": 8786,
      "stitutes": 8787,
      "Ġtemple": 8788,
      "Ġguess": 8789,
      "azon": 8790,
      "Ġbasically": 8791,
      "Ġannually": 8792,
      "Ġsteam": 8793,
      "Ġconsisting": 8794,
      "Ġmicrob": 8795,
      "Ġinvestigate": 8796,
      "Ġadmitted": 8797,
      "haust": 8798,
      "specific": 8799,
      "Ġjuvenile": 8800,
      "Ġgalaxy": 8801,
      "Ġoccasionally": 8802,
      "Ġhazardous": 8803,
      "ĠZealand": 8804,
      "53": 8805,
      "Brien": 8806,
      "Don": 8807,
      "Sec": 8808,
      "kind": 8809,
      "western": 8810,
      "Ġsul": 8811,
      "Ġsad": 8812,
      "Ġpor": 8813,
      "Ġpace": 8814,
      "Ġbare": 8815,
      "Ġfabric": 8816,
      "Ġtom": 8817,
      "Ġdict": 8818,
      "omal": 8819,
      "Ġgrid": 8820,
      "iger": 8821,
      "ĠCorn": 8822,
      "ĠIce": 8823,
      "eld": 8824,
      "ĠMach": 8825,
      "ĠMoon": 8826,
      "Ġdeer": 8827,
      "Ġdece": 8828,
      "rix": 8829,
      "ĠLater": 8830,
      "ĠChief": 8831,
      "ĠVen": 8832,
      "phal": 8833,
      "onsin": 8834,
      "atively": 8835,
      "Ġsurgical": 8836,
      "Ġflash": 8837,
      "upiter": 8838,
      "Ġserves": 8839,
      "Ġkeeps": 8840,
      "Ġcirculation": 8841,
      "Ġdipl": 8842,
      "regular": 8843,
      "Ġminds": 8844,
      "Ġcampus": 8845,
      "Ġversus": 8846,
      "Ġimprovements": 8847,
      "Ġwait": 8848,
      "ĠArea": 8849,
      "Ġassumed": 8850,
      "Researchers": 8851,
      "Ġprayer": 8852,
      "Ġalgorith": 8853,
      "Ġingredients": 8854,
      "Ġdischarge": 8855,
      "Ġnervous": 8856,
      "ĠMicrosoft": 8857,
      ".),": 8858,
      "CH": 8859,
      "Copyright": 8860,
      "EE": 8861,
      "PR": 8862,
      "lights": 8863,
      "pret": 8864,
      "was": 8865,
      "Ġcul": 8866,
      "itic": 8867,
      "itches": 8868,
      "Ġfer": 8869,
      "Ġfuels": 8870,
      "Ġintern": 8871,
      "Ġmile": 8872,
      "icious": 8873,
      "Ġdress": 8874,
      "role": 8875,
      "Ġreward": 8876,
      "Ġreverse": 8877,
      "ĠTre": 8878,
      "ĠWal": 8879,
      "ĠRay": 8880,
      "ĠOper": 8881,
      "pert": 8882,
      "Ġcompens": 8883,
      "Ġimpair": 8884,
      "Ġ33": 8885,
      "issure": 8886,
      "Ġgrain": 8887,
      "Ġreduces": 8888,
      "Ġorigins": 8889,
      "Ġprofit": 8890,
      "2005": 8891,
      "isconsin": 8892,
      "Ġcopper": 8893,
      "Ġsurvived": 8894,
      "Ġlabour": 8895,
      "Ġcitizen": 8896,
      "Ġstrengthen": 8897,
      "Ġtransmitted": 8898,
      "Ġchallenging": 8899,
      "Ġacquired": 8900,
      "Ġexhibit": 8901,
      "Ġfifty": 8902,
      "Ġconstitutional": 8903,
      "Ġhouseholds": 8904,
      "Ġallergies": 8905,
      "Ġregistered": 8906,
      "Ġinertial": 8907,
      "Ġmunicipal": 8908,
      "97": 8909,
      "Where": 8910,
      "cs": 8911,
      "mble": 8912,
      "uan": 8913,
      "essee": 8914,
      "also": 8915,
      "ĠPyth": 8916,
      "ĠWin": 8917,
      "ĠDom": 8918,
      "Ġspat": 8919,
      "Ġworry": 8920,
      "ĠJo": 8921,
      "Ġwouldn": 8922,
      "Ġsculpt": 8923,
      "neum": 8924,
      "Ġhummingb": 8925,
      "Ġexploration": 8926,
      "Ġelectro": 8927,
      "Ġmarks": 8928,
      "Ġpursu": 8929,
      "Ġdetermining": 8930,
      "ĠScript": 8931,
      "Ġsensitivity": 8932,
      "Ġcement": 8933,
      "Ġoxid": 8934,
      "Ġvariations": 8935,
      "Ġestablishing": 8936,
      "Ġwaiting": 8937,
      "Ġconvert": 8938,
      "Ġweakness": 8939,
      "Ġgalaxies": 8940,
      "Ġflexible": 8941,
      "!âĢĿ": 8942,
      "Get": 8943,
      "Ġ]": 8944,
      "anas": 8945,
      "Ġmir": 8946,
      "Ġhall": 8947,
      "Ġbell": 8948,
      "uting": 8949,
      "igm": 8950,
      "ĠCensus": 8951,
      "Ġpros": 8952,
      "Ġprocl": 8953,
      "Ġ120": 8954,
      "ĠLy": 8955,
      "Ġabol": 8956,
      "Ġabstract": 8957,
      "Ġintensity": 8958,
      "Ġoverwhel": 8959,
      "Ġblind": 8960,
      "Ġprovisions": 8961,
      "Ġsurre": 8962,
      "Ġformula": 8963,
      "Ġgrains": 8964,
      "Ġclassification": 8965,
      "aterials": 8966,
      "Ġoldest": 8967,
      "Ġvolunteers": 8968,
      "inoza": 8969,
      "ĠAppro": 8970,
      "Ġpermitted": 8971,
      "Ġarrival": 8972,
      "Ġpriority": 8973,
      "Ġassistant": 8974,
      "Ġpipe": 8975,
      "oglob": 8976,
      "emetery": 8977,
      "51": 8978,
      "87": 8979,
      "Despite": 8980,
      "hammad": 8981,
      "âĤ¬": 8982,
      "Ġton": 8983,
      "Ġtables": 8984,
      "onomy": 8985,
      "Ġsale": 8986,
      "Ġcub": 8987,
      "Ġfiber": 8988,
      "anwhile": 8989,
      "ĠTake": 8990,
      "ĠSleep": 8991,
      "ĠCro": 8992,
      "ĠCirc": 8993,
      "Ġprol": 8994,
      "ĠMax": 8995,
      "oded": 8996,
      "through": 8997,
      "uscript": 8998,
      "ĠWorks": 8999,
      "Ġnoticed": 9000,
      "Ġshapes": 9001,
      "ĠJul": 9002,
      "ĠOS": 9003,
      "ĠUr": 9004,
      "Ġimaging": 9005,
      "Ġplot": 9006,
      "iano": 9007,
      "Ġrecru": 9008,
      "ieve": 9009,
      "ieval": 9010,
      "Ġknee": 9011,
      "Ġdetection": 9012,
      "Ġrespiratory": 9013,
      "rank": 9014,
      "Ġlearner": 9015,
      "Ġcaps": 9016,
      "ĠPhot": 9017,
      "ĠChristmas": 9018,
      "apped": 9019,
      "ĠAssess": 9020,
      "Ġutility": 9021,
      "Ġcomplications": 9022,
      "ĠChristianity": 9023,
      "Ġpermit": 9024,
      "ĠVolunteers": 9025,
      "ĠParkinson": 9026,
      "Ġpresidential": 9027,
      "ĠLawrence": 9028,
      "Ġcontributions": 9029,
      "Ġlicense": 9030,
      "ĠPhysics": 9031,
      "Ġpreparation": 9032,
      "Ġpoultry": 9033,
      "Ġtheoretical": 9034,
      "lahoma": 9035,
      "64": 9036,
      "Back": 9037,
      "Ge": 9038,
      "PD": 9039,
      "bles": 9040,
      "oard": 9041,
      "page": 9042,
      "va": 9043,
      "vation": 9044,
      "vals": 9045,
      "hent": 9046,
      "Ġthee": 9047,
      "itle": 9048,
      "Ġbridge": 9049,
      "ĠCreek": 9050,
      "ĠCzech": 9051,
      "âĢĺ": 9052,
      "adic": 9053,
      "elly": 9054,
      "ĠMap": 9055,
      "ĠMoses": 9056,
      "opathy": 9057,
      "ĠBru": 9058,
      "umer": 9059,
      "ĠWright": 9060,
      "Ġsevent": 9061,
      "Ġenzymes": 9062,
      "plo": 9063,
      "aren": 9064,
      "angle": 9065,
      "aware": 9066,
      "Ġ978": 9067,
      "risk": 9068,
      "Ġphysically": 9069,
      "Ġbreed": 9070,
      "Ġconstra": 9071,
      "Ġvolt": 9072,
      "Ġdivide": 9073,
      "ĠCheck": 9074,
      "Ġinvolvement": 9075,
      "Ġconversation": 9076,
      "Ġdeposits": 9077,
      "Ġoblig": 9078,
      "2000": 9079,
      "PV": 9080,
      "door": 9081,
      "eath": 9082,
      "ga": 9083,
      "iac": 9084,
      "Ġoceans": 9085,
      "Ġfra": 9086,
      "Ġhal": 9087,
      "Ġlosing": 9088,
      "Ġgate": 9089,
      "uru": 9090,
      "iry": 9091,
      "aming": 9092,
      "Ġvig": 9093,
      "Ġcholesterol": 9094,
      "actic": 9095,
      "ĠInvest": 9096,
      "aret": 9097,
      "Ġincent": 9098,
      "Ġjury": 9099,
      "Ġsovere": 9100,
      "Ġrecon": 9101,
      "Ġtraits": 9102,
      "ovascular": 9103,
      "Ġoffices": 9104,
      "Ġpool": 9105,
      "Ġlock": 9106,
      "ĠIndex": 9107,
      "Ġ800": 9108,
      "Ġclassic": 9109,
      "Ġoperated": 9110,
      "ĠClin": 9111,
      "Ġbeneath": 9112,
      "rels": 9113,
      "Ġreturns": 9114,
      "Ġcollections": 9115,
      "Ġpaying": 9116,
      "mediate": 9117,
      "Ġcontainer": 9118,
      "Ġirre": 9119,
      "Ġaffairs": 9120,
      "Ġdivine": 9121,
      "Ġjudgment": 9122,
      "ilosop": 9123,
      "Ġquantum": 9124,
      "Ġquantity": 9125,
      "itzer": 9126,
      "ĠSpecies": 9127,
      "Ġliberal": 9128,
      "Ġexhibition": 9129,
      "ĠRelig": 9130,
      "Ġsurprised": 9131,
      "Ġdistinguish": 9132,
      "Ġallergic": 9133,
      "ĠIrish": 9134,
      "Ġcarbohyd": 9135,
      "ĠTaylor": 9136,
      "61": 9137,
      "94": 9138,
      "UL": 9139,
      "gender": 9140,
      "zz": 9141,
      "Ġicon": 9142,
      "Ġcraft": 9143,
      "Ġcovenant": 9144,
      "Ġpill": 9145,
      "lete": 9146,
      "Ġreign": 9147,
      "Ġlip": 9148,
      "Ġnort": 9149,
      "Ġnoun": 9150,
      "Ġgram": 9151,
      "ĠChem": 9152,
      "amine": 9153,
      "ĠMajor": 9154,
      "ĠPs": 9155,
      "ĠPerson": 9156,
      "user": 9157,
      "anted": 9158,
      "ĠNY": 9159,
      "ĠNic": 9160,
      "ĠNeg": 9161,
      "Ġencl": 9162,
      "Ġintent": 9163,
      "Ġadverse": 9164,
      "aternal": 9165,
      "Ġclar": 9166,
      "aved": 9167,
      "Ġrac": 9168,
      "ovak": 9169,
      "Ġsubt": 9170,
      "forest": 9171,
      "Ġextrem": 9172,
      "Ġcellular": 9173,
      "Ġending": 9174,
      "Ġsocieties": 9175,
      "Ġ95": 9176,
      "Who": 9177,
      "atories": 9178,
      "Ġobser": 9179,
      "Ġharder": 9180,
      "Ġfocuses": 9181,
      "Ġsentences": 9182,
      "Ġbigger": 9183,
      "irable": 9184,
      "ĠAntar": 9185,
      "Ġidentifying": 9186,
      "Ġconversion": 9187,
      "Ġdiscoveries": 9188,
      "Ġchannel": 9189,
      "Ġarrested": 9190,
      "Ġsuddenly": 9191,
      "=\"": 9192,
      "EF": 9193,
      "Source": 9194,
      "Tra": 9195,
      "Two": 9196,
      "sis": 9197,
      "ãĤ": 9198,
      "Ġtip": 9199,
      "Ġtied": 9200,
      "inator": 9201,
      "Ġfest": 9202,
      "Ġflesh": 9203,
      "Ġinherent": 9204,
      "Ġdies": 9205,
      "cts": 9206,
      "Ġrent": 9207,
      "omatic": 9208,
      "Ġgast": 9209,
      "imp": 9210,
      "ayer": 9211,
      "ela": 9212,
      "ĠWisconsin": 9213,
      "Ġchose": 9214,
      "Ġenables": 9215,
      "Ġdoct": 9216,
      "ĠStan": 9217,
      "Ġknight": 9218,
      "text": 9219,
      "Ġraces": 9220,
      "Ġovercome": 9221,
      "Ġconsensus": 9222,
      "Ġsubspecies": 9223,
      "adequ": 9224,
      "Ġprime": 9225,
      "Ġcouldn": 9226,
      "Ġrefused": 9227,
      "Ġminimal": 9228,
      "Ġposts": 9229,
      "Ġdescribing": 9230,
      "ĠAllah": 9231,
      "Ġ1975": 9232,
      "Ġinfluential": 9233,
      "Ġcamps": 9234,
      "Ġirrit": 9235,
      "ĠSmall": 9236,
      "Ġreveals": 9237,
      "Ġepis": 9238,
      "Ġtransferred": 9239,
      "Ġpurchased": 9240,
      "Ġwatching": 9241,
      "Ġenemies": 9242,
      "Ġreplacement": 9243,
      "Ġhopes": 9244,
      "Ġconsciousness": 9245,
      "ĠTennessee": 9246,
      "Ġvelocity": 9247,
      "CP": 9248,
      "function": 9249,
      "gon": 9250,
      "Ġpap": 9251,
      "Ġborrow": 9252,
      "Ġmood": 9253,
      "Ġthinks": 9254,
      "Ġnom": 9255,
      "ĠTreatment": 9256,
      "iders": 9257,
      "ĠSon": 9258,
      "isting": 9259,
      "istence": 9260,
[...]
